<unk>	0
<s>	0
</s>	0
,	-2.93557
.	-3.40427
▁the	-3.48576
▁in	-4.08838
▁die	-4.15056
▁of	-4.15079
▁der	-4.1745
▁to	-4.243
▁and	-4.42812
▁und	-4.47671
n	-4.76044
▁a	-4.89605
▁is	-4.9048
▁that	-4.98263
▁I	-4.99471
s	-5.11926
▁zu	-5.22152
en	-5.25145
▁	-5.29195
▁den	-5.29658
▁for	-5.37271
▁be	-5.39765
▁daß	-5.43154
▁this	-5.44504
▁von	-5.48906
▁we	-5.53407
▁ist	-5.54791
▁on	-5.5484
▁für	-5.56741
-	-5.57929
▁which	-5.66109
▁nicht	-5.67592
▁das	-5.67633
▁eine	-5.6864
ing	-5.69148
▁are	-5.71391
▁wir	-5.72556
▁auf	-5.7308
▁des	-5.77526
▁an	-5.79745
▁have	-5.798
▁not	-5.80569
▁it	-5.82505
▁as	-5.88195
▁werden	-5.90257
▁-	-5.91536
▁with	-5.91694
▁im	-5.94035
▁es	-5.95926
▁will	-5.96414
▁ich	-5.98072
▁mit	-5.98541
▁Union	-6.05324
▁The	-6.06977
▁auch	-6.07716
▁by	-6.09755
▁European	-6.14306
▁dem	-6.154
▁Mr	-6.17657
▁ein	-6.21357
▁sich	-6.22025
▁Kommission	-6.22828
▁has	-6.22899
▁Commission	-6.24749
ch	-6.25548
▁Herr	-6.28637
'	-6.30116
▁so	-6.32164
▁wird	-6.33319
▁sind	-6.3623
▁Die	-6.40245
▁also	-6.42303
▁was	-6.46666
▁haben	-6.47678
▁would	-6.4807
▁We	-6.51283
▁diese	-6.51646
▁all	-6.53179
▁hat	-6.53718
▁über	-6.53894
▁um	-6.53929
▁Europäische	-6.54176
▁at	-6.54535
r	-6.55623
▁wie	-6.57516
:	-6.58123
▁zur	-6.58276
▁als	-6.59131
▁should	-6.60231
▁s	-6.60459
e	-6.60596
▁einer	-6.61277
▁In	-6.62012
▁sie	-6.63232
?	-6.63381
▁must	-6.65191
m	-6.68586
er	-6.70067
▁our	-6.70553
▁but	-6.71176
▁you	-6.71274
▁Wir	-6.71549
▁from	-6.72065
▁President	-6.72529
▁Sie	-6.7323
▁been	-6.77263
ed	-6.78922
▁uns	-6.80179
▁can	-6.85801
▁Parliament	-6.86049
▁It	-6.8656
▁bei	-6.87855
▁dieser	-6.87976
▁möchte	-6.90306
▁This	-6.92321
▁müssen	-6.93097
▁there	-6.93165
▁or	-6.93237
▁more	-6.93599
▁vor	-6.95477
▁am	-6.95708
ly	-6.96535
▁(	-6.97189
▁einen	-6.97383
▁do	-6.98568
▁muß	-6.99097
▁its	-7.00925
▁like	-7.0119
▁nur	-7.02386
▁these	-7.02455
▁kann	-7.03141
▁Parlament	-7.03652
▁"	-7.04587
▁nach	-7.05465
▁noch	-7.073
▁very	-7.08576
▁diesem	-7.08883
▁können	-7.0948
▁Das	-7.10356
▁wenn	-7.11255
▁sein	-7.1142
▁one	-7.12056
▁aber	-7.12064
▁Council	-7.12611
▁Member	-7.12631
▁zum	-7.13071
▁aus	-7.13625
▁their	-7.14365
!	-7.14392
d	-7.14917
▁oder	-7.1496
▁Europe	-7.15713
▁Es	-7.15769
▁EU	-7.17382
▁Präsident	-7.19107
▁report	-7.2183
▁policy	-7.22096
▁what	-7.22329
▁States	-7.22681
▁ihre	-7.27082
▁sehr	-7.27491
▁who	-7.29224
▁durch	-7.29226
▁einem	-7.29436
▁about	-7.29556
▁they	-7.31006
es	-7.31029
▁Bericht	-7.31177
▁only	-7.31242
▁other	-7.3255
t	-7.32659
▁if	-7.32878
▁new	-7.33282
▁need	-7.33543
▁my	-7.34672
▁man	-7.34826
▁us	-7.36538
▁no	-7.37824
▁Frau	-7.39962
▁dieses	-7.41338
▁important	-7.41499
;	-7.42186
▁countries	-7.42808
▁time	-7.43804
▁Mitgliedstaaten	-7.45053
▁because	-7.45225
▁therefore	-7.47114
▁hier	-7.47118
▁Entwicklung	-7.49861
▁wurde	-7.50209
▁up	-7.50509
ung	-7.50871
▁people	-7.5094
▁meine	-7.51069
▁Frage	-7.52156
▁between	-7.52375
▁unsere	-7.52688
▁any	-7.53183
▁Commissioner	-7.53648
)	-7.53728
▁out	-7.5406
▁take	-7.54485
▁some	-7.55234
▁into	-7.55507
y	-7.55688
▁dies	-7.5614
▁Europa	-7.56529
▁mehr	-7.57231
▁social	-7.57657
▁make	-7.57894
▁Der	-7.58032
▁now	-7.58772
▁keine	-7.59519
▁such	-7.60314
▁development	-7.61425
▁alle	-7.61881
▁sondern	-7.62446
▁when	-7.63919
▁zwischen	-7.64368
▁fact	-7.64479
▁A	-7.65086
▁just	-7.65582
▁support	-7.66027
▁Rat	-7.67715
▁regard	-7.68322
▁jedoch	-7.68424
▁made	-7.68616
▁way	-7.68671
▁damit	-7.69337
▁say	-7.6968
▁being	-7.69944
▁Community	-7.71188
▁work	-7.71427
▁sowie	-7.71748
▁mich	-7.71776
▁those	-7.73073
▁gibt	-7.7442
▁war	-7.74508
▁heute	-7.74593
▁were	-7.74851
▁political	-7.75708
▁europäischen	-7.76051
▁anderen	-7.77208
▁within	-7.77767
▁debate	-7.77896
▁than	-7.78222
▁er	-7.79897
▁point	-7.80132
▁where	-7.80416
▁bereits	-7.81633
▁issue	-7.82625
▁question	-7.82699
▁unter	-7.8436
▁many	-7.84812
▁proposal	-7.85066
▁first	-7.85336
▁Maßnahmen	-7.8544
▁S	-7.85539
▁believe	-7.85605
▁dann	-7.86718
▁economic	-7.87114
▁habe	-7.87432
▁rights	-7.88412
▁weil	-7.88628
▁them	-7.88734
▁Diese	-7.89546
▁ganz	-7.89554
▁want	-7.89615
▁Kosovo	-7.90529
▁areas	-7.90626
▁think	-7.91346
▁denn	-7.92197
▁wo	-7.9336
▁under	-7.94151
▁too	-7.95766
▁geht	-7.95798
▁years	-7.96366
▁could	-7.965
▁gegen	-7.96731
▁order	-7.96851
▁Kollegen	-7.97595
▁da	-7.97718
▁Rahmen	-7.97808
▁denen	-7.97879
▁already	-7.98442
▁two	-7.98712
▁well	-7.98753
▁sagen	-7.98828
▁see	-7.98835
▁unserer	-7.98885
▁dafür	-7.98938
▁most	-7.99166
▁your	-7.99522
▁Kommissar	-7.99836
▁cannot	-7.99925
▁does	-8.00005
▁me	-8.00027
▁ob	-8.00164
▁darauf	-8.00167
▁As	-8.00974
▁Committee	-8.01174
▁immer	-8.01181
▁here	-8.02397
▁situation	-8.02734
▁mir	-8.02735
▁area	-8.03165
▁Ihnen	-8.03204
▁course	-8.04
▁today	-8.04314
▁programme	-8.04585
▁seine	-8.04731
▁possible	-8.04755
▁much	-8.04768
▁national	-8.05162
▁had	-8.05582
▁even	-8.06223
al	-8.06353
▁same	-8.0716
▁said	-8.07409
▁vo	-8.07519
▁sollte	-8.07712
▁Vorschlag	-8.07949
▁aid	-8.08003
▁sollten	-8.08468
▁right	-8.08861
▁public	-8.08951
▁B	-8.09082
▁un	-8.0921
▁Richtlinie	-8.09677
▁ihrer	-8.09716
▁financial	-8.09862
▁against	-8.09862
▁Regierung	-8.1026
▁water	-8.10911
▁There	-8.11372
▁allem	-8.11456
▁know	-8.11874
▁directive	-8.12092
▁still	-8.12242
▁ensure	-8.12356
▁Bereich	-8.12368
▁Gemeinschaft	-8.12404
▁measures	-8.12434
▁doch	-8.12853
▁Parlaments	-8.12954
▁process	-8.13005
▁his	-8.13086
▁may	-8.13157
▁However	-8.1318
▁view	-8.13724
▁common	-8.13756
▁part	-8.1404
▁market	-8.14138
▁future	-8.1432
▁C	-8.14423
▁over	-8.14548
▁einige	-8.14956
▁human	-8.15301
▁Arbeit	-8.15383
▁how	-8.15866
▁hope	-8.15893
▁last	-8.15965
▁clear	-8.16442
▁own	-8.16822
▁That	-8.16948
▁Bürger	-8.16965
▁Zeit	-8.1721
▁wollen	-8.17251
▁neuen	-8.17492
▁No	-8.18089
▁legal	-8.18366
▁Politik	-8.1863
▁put	-8.18944
te	-8.19176
▁able	-8.19446
▁country	-8.20195
▁position	-8.20365
▁both	-8.20543
▁Wenn	-8.20609
▁system	-8.20804
▁taken	-8.21155
▁selbst	-8.21519
▁bin	-8.21709
▁neue	-8.2171
▁level	-8.21777
▁Dies	-8.218
▁principle	-8.21861
▁regions	-8.22359
▁insbesondere	-8.22413
▁present	-8.22705
▁dazu	-8.22797
▁Ein	-8.22801
▁würde	-8.22853
▁give	-8.22906
▁cooperation	-8.2301
▁good	-8.23126
▁wurden	-8.23374
▁Da	-8.23395
▁far	-8.23495
▁why	-8.23645
▁action	-8.24124
▁Menschen	-8.24373
▁particular	-8.24525
wohl	-8.24949
▁politische	-8.24955
▁particularly	-8.25286
▁he	-8.25338
▁example	-8.25665
▁So	-8.25972
▁regional	-8.26205
▁ohne	-8.26252
▁citizens	-8.2657
▁agreement	-8.26649
▁decision	-8.26672
▁great	-8.26838
▁bis	-8.26989
▁international	-8.27307
▁soll	-8.27356
▁But	-8.27495
▁problems	-8.27593
▁case	-8.27647
▁before	-8.27833
▁use	-8.28598
▁terms	-8.28645
▁meiner	-8.28819
▁Recht	-8.28924
▁Fraktion	-8.28929
▁wäre	-8.29693
▁Sicherheit	-8.29886
▁end	-8.3036
▁jetzt	-8.30818
▁competition	-8.30824
▁allen	-8.31186
▁given	-8.31354
▁Regionen	-8.31856
▁place	-8.31912
▁respect	-8.32011
▁tun	-8.3243
▁Fragen	-8.32574
▁E	-8.32854
▁große	-8.32898
▁House	-8.33214
▁policies	-8.33215
▁concern	-8.33417
▁Wie	-8.33838
▁schon	-8.3392
▁Zusammenarbeit	-8.34295
▁wichtig	-8.34439
▁Fall	-8.34565
▁Meinung	-8.35195
▁vote	-8.35221
▁europäische	-8.35349
▁protection	-8.35354
▁nun	-8.35434
▁issues	-8.35497
▁long	-8.35931
▁world	-8.36029
▁means	-8.3621
▁amendments	-8.36597
▁year	-8.36743
▁1999	-8.36846
▁Länder	-8.37123
▁etwas	-8.37268
▁welche	-8.37281
▁number	-8.37301
▁law	-8.37515
▁set	-8.37754
▁matter	-8.38029
▁resolution	-8.38396
▁Im	-8.38635
▁Group	-8.38768
▁viele	-8.38869
▁concerned	-8.39014
▁opinion	-8.39503
▁Umwelt	-8.39638
▁Madam	-8.39656
▁Ziel	-8.39735
▁zwei	-8.40072
▁Artikel	-8.40076
▁machen	-8.4009
▁natürlich	-8.4025
den	-8.40282
▁Mittel	-8.40386
▁whether	-8.404
▁Jahren	-8.40751
▁Präsidentin	-8.41004
▁again	-8.41502
▁necessary	-8.41525
▁wieder	-8.4197
Änderungsanträge	-8.42806
▁state	-8.42841
▁Was	-8.42982
▁If	-8.43076
▁Probleme	-8.43346
▁wirklich	-8.43782
▁Zusammenhang	-8.43809
▁environmental	-8.43894
▁andere	-8.4396
▁Treaty	-8.44194
▁zwar	-8.44194
▁Prodi	-8.44194
▁certain	-8.44518
▁gemeinsame	-8.44581
▁Problem	-8.44714
▁Ausschuß	-8.45041
▁Unternehmen	-8.45683
▁without	-8.45804
▁deal	-8.46053
▁v	-8.46054
▁nämlich	-8.46542
▁ihr	-8.46573
▁employment	-8.46576
▁geben	-8.46706
▁initiative	-8.47132
▁problem	-8.47198
▁resources	-8.47412
▁since	-8.47723
▁Bedeutung	-8.47738
▁besteht	-8.4776
▁ask	-8.47808
in	-8.48307
▁programmes	-8.48558
▁Unterstützung	-8.48671
▁positive	-8.4871
▁Entschließung	-8.48824
▁come	-8.48953
▁Ihre	-8.49059
▁Thema	-8.49245
▁next	-8.49353
▁consider	-8.49521
▁Frauen	-8.49525
▁rapporteur	-8.49653
▁Aber	-8.49827
▁women	-8.50209
▁Namen	-8.50584
▁however	-8.50998
▁What	-8.51593
▁few	-8.51666
▁shall	-8.51849
▁information	-8.51977
▁einmal	-8.52011
▁proposals	-8.52012
▁Members	-8.5225
▁worden	-8.52373
▁government	-8.52479
▁%	-8.52702
▁de	-8.52957
▁role	-8.52988
▁institutions	-8.53166
▁2000	-8.5325
▁möglich	-8.53406
▁LEADER	-8.53526
st	-8.53923
▁Land	-8.5397
▁Debatte	-8.54013
▁letzten	-8.54032
▁Ver	-8.54152
▁An	-8.5463
▁ja	-8.54824
▁services	-8.54887
▁service	-8.55209
▁provide	-8.55251
▁sozialen	-8.5582
▁Lage	-8.56166
▁betrifft	-8.56586
▁Jahr	-8.56867
▁Deshalb	-8.56969
▁Aussprache	-8.56969
▁whole	-8.57004
▁thank	-8.57324
▁Wirtschaft	-8.57622
▁Rates	-8.57716
▁Article	-8.57895
▁done	-8.5794
▁wissen	-8.58084
▁reform	-8.58223
▁security	-8.58328
▁H	-8.58429
▁viel	-8.58959
spolitik	-8.59138
▁daher	-8.59216
▁W	-8.59528
▁darüber	-8.59653
▁towards	-8.59672
▁stehen	-8.59989
▁seiner	-8.60072
▁Rolle	-8.60098
▁behalf	-8.60103
▁INTERREG	-8.60108
▁basis	-8.60564
▁Verantwortung	-8.60582
▁framework	-8.60935
▁gegenüber	-8.61071
▁Be	-8.6125
▁second	-8.61336
▁legislation	-8.61465
▁M	-8.6158
▁Staaten	-8.61651
▁Situation	-8.61861
▁through	-8.61967
▁führen	-8.62182
▁daran	-8.62413
"	-8.62736
▁different	-8.62816
▁Jahre	-8.62908
▁Abgeordneten	-8.62962
▁d	-8.63115
▁going	-8.63142
▁State	-8.63214
▁proposed	-8.6336
▁Euro	-8.63453
▁favour	-8.6391
▁darf	-8.64282
zug	-8.64565
▁extreme	-8.6459
▁something	-8.64737
▁steht	-8.64812
▁Nach	-8.65136
▁1	-8.65584
▁stellen	-8.65935
▁kein	-8.66708
▁Ländern	-8.66903
▁Und	-8.67015
▁Punkt	-8.6713
▁Teil	-8.67154
▁Aus	-8.67178
▁environment	-8.67795
▁Gebiet	-8.67805
▁For	-8.67831
▁local	-8.68045
▁ab	-8.68134
▁Auf	-8.68608
▁authorities	-8.6861
▁Kolleginnen	-8.68611
▁sector	-8.68619
▁davon	-8.68628
▁Wettbewerb	-8.69056
▁'	-8.69119
▁working	-8.69307
▁subject	-8.69609
▁after	-8.69688
▁000	-8.69803
▁essential	-8.69975
▁responsibility	-8.70125
▁glaube	-8.7032
▁serious	-8.70569
▁industry	-8.70604
▁each	-8.70633
▁peace	-8.70681
▁während	-8.70719
▁kommen	-8.70864
arious	-8.71067
▁Tagesordnung	-8.71087
▁gesagt	-8.71128
▁clearly	-8.71214
▁Programm	-8.71307
▁nationalen	-8.71322
▁group	-8.71633
▁adopted	-8.71672
▁rules	-8.71787
ary	-8.71837
▁wish	-8.71996
▁specific	-8.72127
▁itself	-8.72139
▁budget	-8.72386
▁rather	-8.7264
▁These	-8.7286
▁account	-8.72879
▁Ebene	-8.72897
able	-8.73188
▁lassen	-8.73283
▁Meine	-8.73376
▁Welt	-8.73395
A	-8.73549
▁committee	-8.73674
▁importance	-8.74196
▁real	-8.74263
▁Europas	-8.74298
▁Entscheidung	-8.74591
▁welcome	-8.74622
▁further	-8.74718
▁forward	-8.74861
▁Menschenrechte	-8.75058
▁unterstützen	-8.75103
▁Möglichkeit	-8.75246
▁Ziele	-8.75467
▁Reform	-8.75482
▁down	-8.7551
▁especially	-8.75774
▁Änderungsantrag	-8.75775
▁safety	-8.75781
▁agree	-8.75876
▁re	-8.76012
Berichterstatter	-8.76141
▁objectives	-8.76157
▁large	-8.76178
▁hand	-8.76376
▁Au	-8.76484
▁result	-8.76732
▁general	-8.76808
▁unseren	-8.76863
▁Er	-8.7691
▁G	-8.77186
▁werde	-8.77611
▁Beschäftigung	-8.77894
▁Ansicht	-8.77934
▁liegt	-8.77948
▁darin	-8.78129
▁go	-8.78313
▁control	-8.78588
▁notwendig	-8.78653
▁allow	-8.7906
▁solche	-8.79156
▁Schutz	-8.79173
▁concerns	-8.79257
▁Erweiterung	-8.79676
▁help	-8.79869
a	-8.79958
▁achieve	-8.80142
▁sollen	-8.80511
o	-8.80586
dem	-8.80592
▁Bei	-8.80632
▁certainly	-8.80753
▁wirtschaftliche	-8.8134
▁look	-8.81453
▁wichtige	-8.81568
▁better	-8.81803
▁qui	-8.81849
▁Anwendung	-8.8187
▁approach	-8.81991
▁besonders	-8.82414
▁start	-8.82436
▁Standpunkt	-8.82561
▁Vorschläge	-8.82703
▁2	-8.82734
▁Zukunft	-8.82796
▁together	-8.8292
▁aware	-8.82928
▁Initiative	-8.82978
▁major	-8.83008
▁conditions	-8.83012
▁Institutionen	-8.8306
▁waren	-8.83279
▁used	-8.83499
▁F	-8.83546
▁having	-8.83567
▁klar	-8.83738
▁Mit	-8.83817
▁könnte	-8.83856
▁On	-8.83864
▁sei	-8.83983
▁continue	-8.84016
▁Umsetzung	-8.8403
▁Ausdruck	-8.84147
▁making	-8.84252
▁And	-8.84427
▁freedom	-8.84696
▁projects	-8.84946
▁seit	-8.85014
▁change	-8.85198
▁always	-8.85223
▁dabei	-8.85256
▁management	-8.85278
▁einigen	-8.85368
▁deshalb	-8.85388
▁Region	-8.85672
▁region	-8.85707
▁ersten	-8.8579
▁economy	-8.85809
▁least	-8.8583
▁million	-8.85869
▁talk	-8.85911
▁Ende	-8.8611
▁tax	-8.86274
▁another	-8.86423
▁gesamte	-8.86462
▁äußerst	-8.86466
▁Beispiel	-8.86603
▁agenda	-8.87047
▁Lösung	-8.87174
▁back	-8.87179
▁greater	-8.87289
▁dort	-8.87548
▁rural	-8.87584
▁Ausschusses	-8.87606
▁really	-8.87662
▁gut	-8.87914
▁weiter	-8.87931
▁Grund	-8.88094
▁every	-8.88194
▁hoffe	-8.88619
▁three	-8.88797
▁dürfen	-8.88809
▁needs	-8.88819
▁trade	-8.88894
▁once	-8.8898
▁Wasser	-8.89114
▁internal	-8.89392
▁Schaffung	-8.89394
▁effective	-8.8941
▁You	-8.89418
▁aller	-8.89422
▁Präsidentschaft	-8.89442
▁Art	-8.8951
▁high	-8.89793
▁Presidency	-8.90001
▁kommt	-8.90033
▁Weg	-8.9014
▁main	-8.90263
▁NATO	-8.90613
em	-8.9063
▁bringen	-8.90638
▁unser	-8.90673
▁funds	-8.90755
▁Minister	-8.90798
▁großen	-8.90886
▁Abstimmung	-8.91192
▁gilt	-8.9123
▁Amsterdam	-8.91262
▁Herren	-8.91401
▁find	-8.91447
▁V	-8.9161
▁Weise	-8.91681
▁gerade	-8.91893
▁bring	-8.92231
gesichts	-8.92273
▁System	-8.92386
▁difficult	-8.92419
▁current	-8.92425
grund	-8.92445
▁schaffen	-8.92457
▁yet	-8.9248
▁erreichen	-8.92506
▁taking	-8.92531
▁involved	-8.92562
▁become	-8.92628
politischen	-8.92678
/	-8.92824
▁Eine	-8.93054
▁opportunity	-8.93107
▁period	-8.93109
▁implementation	-8.93122
▁Rechte	-8.93263
▁did	-8.93396
▁Zu	-8.93461
▁democratic	-8.93764
▁halte	-8.94156
▁beispielsweise	-8.94394
▁Auswirkungen	-8.94401
▁URBAN	-8.94417
▁food	-8.94728
▁health	-8.95034
▁force	-8.95153
▁interests	-8.95431
▁Bevölkerung	-8.9556
der	-8.95788
▁progress	-8.96057
▁Programme	-8.96099
▁darum	-8.96333
▁negotiations	-8.96361
▁form	-8.96439
on	-8.96446
▁including	-8.9701
▁Damen	-8.97015
▁einzelnen	-8.97111
▁lead	-8.9712
▁words	-8.97133
▁nächsten	-8.97197
▁Hilfe	-8.97414
▁soziale	-8.97513
▁weitere	-8.97567
▁Conference	-8.97624
▁drei	-8.97626
▁besser	-8.97686
politik	-8.97705
▁Millionen	-8.9831
▁enlargement	-8.98411
▁questions	-8.98612
▁companies	-8.98954
▁justice	-8.98954
▁Israel	-8.99095
▁D	-8.99205
▁less	-8.99256
▁Abgeordnete	-8.99308
▁decisions	-8.99362
▁small	-8.99586
▁gemeinsam	-8.99636
▁guidelines	-8.99649
▁her	-8.99735
▁life	-9.00002
▁sicher	-9.00022
▁reason	-9.00035
▁Erachtens	-9.00299
▁erhalten	-9.00364
▁dessen	-9.00618
▁fundamental	-9.00917
▁gentlemen	-9.00979
▁groups	-9.00998
▁accept	-9.0102
▁Förderung	-9.01027
▁brauchen	-9.01032
▁Beihilfen	-9.01088
▁regulation	-9.0118
▁quality	-9.01182
▁hin	-9.01626
▁mentioned	-9.018
▁sprechen	-9.01957
▁ihnen	-9.02
▁third	-9.02022
▁nichts	-9.02103
▁ebenfalls	-9.02357
▁prevent	-9.02479
▁efforts	-9.02598
▁risk	-9.02611
▁Verfahren	-9.02612
▁Kosten	-9.02892
▁Affairs	-9.03048
▁7	-9.03207
▁procedure	-9.03227
▁based	-9.0329
▁denke	-9.0345
▁lack	-9.03691
▁responsible	-9.03762
▁verschiedenen	-9.04004
inblick	-9.04274
▁deutlich	-9.04427
▁Portuguese	-9.04458
um	-9.04458
▁halten	-9.04463
▁LIFE	-9.04484
▁N	-9.04543
▁alles	-9.04822
▁P	-9.04959
▁include	-9.04963
▁Grundlage	-9.05086
ern	-9.05147
▁Hier	-9.05261
▁Amendment	-9.05348
▁points	-9.05499
▁adopt	-9.05584
▁postal	-9.05738
▁Austria	-9.05802
▁cost	-9.06084
▁ländlichen	-9.06105
▁kind	-9.06129
▁beiden	-9.064
▁Finally	-9.06595
▁context	-9.06753
▁gute	-9.06901
▁Bekämpfung	-9.07331
ation	-9.07413
▁create	-9.07428
▁objective	-9.07457
▁often	-9.07603
▁b	-9.07799
▁gegeben	-9.07813
▁danken	-9.07886
▁ihm	-9.08068
▁finden	-9.08239
▁upon	-9.08278
▁hatte	-9.08372
ng	-9.08477
▁sehen	-9.08617
▁then	-9.08738
▁full	-9.0874
▁attention	-9.08788
▁weiß	-9.08797
▁past	-9.088
▁increase	-9.0886
▁Verhandlungen	-9.08886
▁months	-9.08923
▁free	-9.09064
▁matters	-9.09107
▁Dank	-9.09303
▁play	-9.09331
▁dur	-9.09402
▁Fischerei	-9.09444
▁Demokratie	-9.09461
▁money	-9.09524
▁indeed	-9.09537
▁best	-9.09632
▁My	-9.09698
▁statement	-9.09781
▁Man	-9.10015
▁understand	-9.10218
▁available	-9.10283
▁strategy	-9.11025
▁simply	-9.11025
▁actually	-9.11049
▁EUR	-9.1105
▁hohe	-9.11069
▁others	-9.11092
▁following	-9.11193
▁things	-9.1135
▁Kommissarin	-9.11504
▁get	-9.1168
▁Patten	-9.1178
▁Party	-9.11781
▁Behörden	-9.12162
▁call	-9.12163
▁relations	-9.12185
bei	-9.12353
▁Rechts	-9.12356
▁criminal	-9.1247
▁Government	-9.12544
▁ebenso	-9.12546
▁weniger	-9.12707
▁Beitrag	-9.12799
▁express	-9.12949
▁beim	-9.13126
▁feel	-9.13308
▁EQUAL	-9.13312
▁day	-9.13325
▁legislative	-9.13341
▁internationalen	-9.13458
▁fully	-9.13491
▁erforderlich	-9.13506
▁communication	-9.13558
▁la	-9.13625
▁exist	-9.13722
lich	-9.13893
▁Gemeinschafts	-9.13895
▁Leitlinien	-9.14133
▁appropriate	-9.14827
▁society	-9.14869
▁Helsinki	-9.14869
▁special	-9.14877
▁democracy	-9.14885
▁while	-9.14958
se	-9.15147
▁Verordnung	-9.15155
▁i	-9.15547
▁Strukturfonds	-9.1557
▁draft	-9.15638
▁gestellt	-9.15639
▁gemacht	-9.15686
▁jobs	-9.15995
▁öffentlichen	-9.16077
▁principles	-9.16203
▁Freiheit	-9.16252
zu	-9.16256
▁gehört	-9.16336
▁Österreich	-9.16409
▁erste	-9.1648
▁tourism	-9.16491
▁Partei	-9.16732
▁text	-9.16815
▁eigene	-9.1687
▁recent	-9.17189
▁single	-9.17253
▁Vor	-9.17278
▁joint	-9.17333
▁Form	-9.17348
▁step	-9.17494
▁vielen	-9.17535
▁jede	-9.18032
▁ourselves	-9.18058
▁might	-9.18058
▁longer	-9.18401
▁T	-9.18793
▁interest	-9.18858
▁morgen	-9.18945
▁effect	-9.19171
▁eigentlich	-9.19211
▁Antwort	-9.19238
▁nehmen	-9.19244
▁doing	-9.19347
▁hätte	-9.19726
▁Verbraucher	-9.19728
▁Kontrolle	-9.19809
▁governments	-9.19888
▁Vereinigte	-9.19974
▁Auffassung	-9.19995
▁meinen	-9.20076
▁5	-9.20432
▁previous	-9.20453
▁konkrete	-9.20474
▁vielleicht	-9.20521
▁Interessen	-9.20558
▁guarantee	-9.20714
dies	-9.21189
▁idea	-9.21317
▁Vertreter	-9.21717
▁handelt	-9.21834
▁1998	-9.21912
▁jeder	-9.21922
▁Gemeinsame	-9.22006
sten	-9.22019
▁Änderung	-9.22204
▁sogar	-9.22207
▁five	-9.22221
▁Durchführung	-9.22268
▁Beziehungen	-9.22366
▁China	-9.22521
▁Erklärung	-9.22535
▁sure	-9.22789
▁enough	-9.23036
▁dialogue	-9.23038
▁stellt	-9.23121
▁6	-9.23132
▁p	-9.23162
▁answer	-9.23264
▁Vertrag	-9.23275
▁Haider	-9.23363
▁At	-9.23762
▁All	-9.23805
▁among	-9.23869
▁private	-9.23927
▁Bedingungen	-9.23969
▁With	-9.24046
▁Jahres	-9.24052
▁Funds	-9.24172
bzw	-9.24217
ten	-9.24283
▁genau	-9.244
▁ge	-9.24482
▁vier	-9.24617
▁transport	-9.24701
▁Court	-9.24753
▁Kultur	-9.24769
▁Aufgabe	-9.2477
▁Rights	-9.24778
▁gehen	-9.24838
▁developing	-9.24936
▁standards	-9.24975
▁zweite	-9.25231
▁h	-9.25401
▁although	-9.25623
▁majority	-9.25634
▁bereit	-9.25687
▁Als	-9.25711
▁erst	-9.25825
▁Unit	-9.26067
▁Reihe	-9.26348
▁allerdings	-9.265
▁wohl	-9.26505
▁weiterhin	-9.26512
▁nothing	-9.26524
▁einfach	-9.26576
▁Interesse	-9.26783
▁mind	-9.26819
▁Convention	-9.26834
▁disaster	-9.26872
▁off	-9.27226
h	-9.27307
▁authority	-9.27389
▁Solana	-9.27394
▁systems	-9.27395
▁fight	-9.27547
▁Notwendigkeit	-9.27717
▁amendment	-9.27751
▁Wettbewerbs	-9.27867
▁instrument	-9.27985
▁entsprechende	-9.28048
▁dar	-9.28099
▁völlig	-9.28116
▁gleichzeitig	-9.28241
▁wichtigste	-9.2828
▁heißt	-9.28295
▁Prozeß	-9.28306
▁aim	-9.28447
▁share	-9.28546
▁Mitteilung	-9.28655
▁bedeutet	-9.28764
▁vorgesehen	-9.28841
▁fünf	-9.29076
▁finanzielle	-9.29126
▁hi	-9.2922
▁car	-9.29349
▁non	-9.29488
▁moment	-9.29495
▁Themen	-9.29551
▁discussion	-9.29569
ance	-9.29978
▁Leben	-9.30231
▁solution	-9.30534
▁würden	-9.30565
▁close	-9.30639
▁cases	-9.30641
▁tragen	-9.30936
▁Außerdem	-9.31005
▁transparency	-9.31006
▁UN	-9.31131
▁Tatsache	-9.31135
▁Un	-9.312
▁erreicht	-9.31439
▁actions	-9.31624
erweise	-9.3168
▁energy	-9.3193
▁zunächst	-9.31931
▁Kohärenz	-9.31946
▁technical	-9.31978
▁currently	-9.32022
▁3	-9.32253
▁bekannt	-9.32311
▁field	-9.32337
tructural	-9.32348
▁übrigen	-9.32411
▁type	-9.32421
▁4	-9.32458
▁vorgelegt	-9.3257
▁activities	-9.32866
▁Secondly	-9.32874
▁assistance	-9.3288
▁Landwirtschaft	-9.32921
▁fishing	-9.33056
▁address	-9.33095
▁representatives	-9.33132
▁provided	-9.33139
▁Informationen	-9.33209
▁values	-9.33272
▁Verbesserung	-9.33276
▁Raum	-9.33357
▁meeting	-9.33507
▁costs	-9.33521
▁Wirtschafts	-9.3355
▁regulations	-9.33588
▁promote	-9.33768
▁him	-9.33769
▁Thank	-9.33808
l	-9.33823
▁demokratische	-9.33838
▁French	-9.33839
▁weiteren	-9.33866
▁Mitgliedstaat	-9.34077
▁Wort	-9.34116
▁vertreten	-9.3418
ntergovernmental	-9.34301
▁agreements	-9.34391
▁bestimmte	-9.34621
▁eindeutig	-9.34836
▁Doch	-9.34861
▁staatliche	-9.34999
▁comes	-9.35023
▁four	-9.35254
▁Bereichen	-9.35302
ion	-9.35303
▁angenommen	-9.35383
▁remind	-9.35596
▁changes	-9.35626
▁Abkommen	-9.35675
▁basic	-9.35716
▁ago	-9.35824
▁20	-9.3591
▁party	-9.3591
▁1997	-9.35913
▁könnten	-9.36074
▁Integration	-9.36128
▁establish	-9.36289
▁recht	-9.3642
▁weit	-9.36432
▁jeden	-9.36687
▁hinaus	-9.3672
▁derzeit	-9.36721
▁expressed	-9.36801
▁seems	-9.36954
▁sagte	-9.37039
▁hatten	-9.37098
▁application	-9.37152
▁Regierungen	-9.37192
▁face	-9.37427
▁apply	-9.3743
▁growth	-9.37675
▁Verfügung	-9.37679
▁pay	-9.37682
▁Für	-9.37687
▁Verwaltung	-9.37741
▁Bestimmungen	-9.37806
ity	-9.38002
▁states	-9.38126
▁statt	-9.38219
▁Projekte	-9.38247
▁meet	-9.3847
▁gegenwärtig	-9.38512
▁lange	-9.38539
▁richtig	-9.38614
▁proper	-9.38618
skonferenz	-9.38662
▁little	-9.38663
▁perhaps	-9.38663
▁Erika	-9.38696
▁prepared	-9.38731
▁culture	-9.38792
▁solchen	-9.39198
▁population	-9.39209
▁R	-9.3941
▁Gesellschaft	-9.39567
▁excellent	-9.39664
▁dangerous	-9.39667
▁coherence	-9.39667
▁extent	-9.39674
▁improve	-9.39966
H	-9.40039
▁10	-9.40042
▁15	-9.40097
▁bisher	-9.401
nsichtlich	-9.40118
▁relation	-9.40197
▁carry	-9.40254
▁speak	-9.40302
less	-9.40303
▁cultural	-9.40631
▁ACP	-9.40687
▁Transparenz	-9.4069
▁Herausforderung	-9.40708
▁getan	-9.40729
▁training	-9.40737
▁mean	-9.40876
▁setzen	-9.40964
▁initiatives	-9.40993
▁entsprechend	-9.41036
▁provisions	-9.41081
▁contribution	-9.41171
▁stability	-9.41704
▁act	-9.41716
▁key	-9.41718
▁parties	-9.41736
▁Zweitens	-9.41737
▁workers	-9.41756
▁findet	-9.4177
▁inner	-9.42362
▁mention	-9.42394
▁Gebieten	-9.42517
wirtschaftlichen	-9.42599
▁criteria	-9.42725
▁tomorrow	-9.42725
▁Damit	-9.42749
▁berücksichtigen	-9.42762
▁berücksichtigt	-9.42762
▁AKP	-9.42772
▁affected	-9.42781
▁oil	-9.42781
▁Vertrags	-9.42792
▁due	-9.42874
▁members	-9.42935
▁remain	-9.4316
▁fest	-9.43166
▁term	-9.4323
▁commitment	-9.43239
▁ihn	-9.43433
▁open	-9.43458
▁show	-9.43699
▁Ergebnis	-9.43734
▁Liberalisierung	-9.43785
▁sense	-9.43811
▁pleased	-9.43817
))	-9.4383
▁combat	-9.43831
▁let	-9.44013
▁Anfrage	-9.4403
▁begrüße	-9.44041
▁Gelegenheit	-9.44278
▁geschlossen	-9.44438
▁Gefahr	-9.44449
▁individual	-9.44587
▁doubt	-9.44608
▁results	-9.44772
▁Möglichkeiten	-9.44819
▁fisheries	-9.4482
▁O	-9.44895
▁integration	-9.44895
▁follow	-9.45165
▁stark	-9.45233
▁addition	-9.45273
▁25	-9.45312
▁task	-9.45363
▁try	-9.45377
▁Strategie	-9.45437
▁needed	-9.45552
▁unemployment	-9.45886
▁above	-9.45887
▁data	-9.4589
▁Cyprus	-9.45899
▁Nationen	-9.45926
▁approved	-9.45952
▁requirements	-9.46041
▁Haus	-9.46114
▁asked	-9.46117
▁Stellungnahme	-9.46158
▁access	-9.46169
▁zahlreiche	-9.46203
▁Gebiete	-9.4624
▁item	-9.46255
halb	-9.46256
▁document	-9.46417
▁project	-9.46431
▁tatsächlich	-9.4649
.)	-9.46627
▁begrüßen	-9.46702
▁markets	-9.46753
▁Entscheidungen	-9.46766
▁Zeitpunkt	-9.46963
▁confidence	-9.46993
▁Dabei	-9.46999
▁Vorschriften	-9.47004
▁Re	-9.47008
▁Let	-9.47066
▁hard	-9.4713
▁conflict	-9.4755
▁line	-9.47811
▁Tobin	-9.48044
▁themselves	-9.48045
▁solidarity	-9.48045
▁Malta	-9.48048
▁Sicht	-9.48188
▁L	-9.48324
▁Ab	-9.48469
▁Paper	-9.48546
▁einzige	-9.48586
▁investment	-9.48634
▁Diskussion	-9.48688
▁Bürgern	-9.4869
C	-9.48722
▁politisch	-9.48791
▁accord	-9.48808
▁reasons	-9.48891
▁seen	-9.48931
▁bewußt	-9.48946
▁soon	-9.48993
▁First	-9.49081
▁Bemühungen	-9.49145
▁Zum	-9.49272
▁bleiben	-9.4929
▁honour	-9.49323
▁military	-9.49323
▁saying	-9.49502
ted	-9.49513
▁II	-9.49537
▁Dialog	-9.49558
▁bear	-9.49586
▁Frieden	-9.49693
▁cars	-9.4984
▁Entwurf	-9.49857
▁bitte	-9.49935
▁add	-9.49966
▁Arbeitnehmer	-9.49998
erhalb	-9.50114
▁Schritt	-9.50162
▁wichtigen	-9.50211
▁true	-9.50274
▁Schwierigkeiten	-9.50285
▁leider	-9.5029
▁sustainable	-9.50303
▁never	-9.50318
▁tabled	-9.50342
▁Mazedonien	-9.50362
▁folgt	-9.50859
▁voll	-9.51017
▁procedures	-9.51096
▁Text	-9.51202
▁Berichts	-9.51213
▁cohesion	-9.5138
▁impact	-9.51382
▁several	-9.51387
▁verhindern	-9.51397
▁required	-9.51452
▁short	-9.51462
▁Mehrheit	-9.51466
▁makes	-9.51575
▁gar	-9.51611
▁fordern	-9.51712
▁old	-9.51715
▁carrie	-9.5172
▁wenig	-9.51724
▁strong	-9.51774
▁Angelegenheiten	-9.51846
▁thing	-9.51879
▁benefit	-9.51948
▁größere	-9.52107
▁urban	-9.52284
▁increasing	-9.52477
▁Zunächst	-9.52515
▁Erstens	-9.52533
▁precisely	-9.52535
▁fördern	-9.52628
▁funding	-9.52637
▁Bereiche	-9.52979
▁Sitzung	-9.53015
▁bestehen	-9.53086
▁Angola	-9.53114
▁50	-9.53222
▁eben	-9.53418
ies	-9.5356
▁congratulate	-9.53654
▁Turkey	-9.53663
▁Haltung	-9.53669
▁Einführung	-9.53671
▁Uhr	-9.53672
▁ermöglichen	-9.53674
▁gewährleisten	-9.53675
▁festgelegt	-9.53678
▁mein	-9.53702
▁nature	-9.53706
▁Firstly	-9.53728
▁implemented	-9.5374
▁success	-9.53787
▁move	-9.53838
▁Arbeitsplätze	-9.54036
▁geführt	-9.54044
▁unterstützt	-9.54192
▁experience	-9.54243
▁allgemeinen	-9.54275
▁Qualität	-9.54297
▁light	-9.54338
▁schließlich	-9.54464
▁Hinsicht	-9.54569
▁Politiken	-9.54656
▁though	-9.54703
▁g	-9.54729
▁crucial	-9.54832
▁Richtung	-9.54835
▁throughout	-9.54836
▁endlich	-9.54909
▁Koordinierung	-9.54942
▁included	-9.54993
▁presented	-9.55152
▁besondere	-9.55324
▁gefordert	-9.5533
▁develop	-9.55662
▁Viele	-9.55678
▁He	-9.55679
▁wesentlichen	-9.55714
▁Markt	-9.55851
▁Grundsatz	-9.55951
▁Policy	-9.56003
▁Question	-9.56003
▁coordination	-9.56007
▁lediglich	-9.56022
▁community	-9.56022
▁erinnern	-9.56026
▁durchaus	-9.56053
▁maintain	-9.56055
▁implementing	-9.56218
▁etwa	-9.56258
▁achieved	-9.56267
▁van	-9.5632
▁Geld	-9.56389
▁enthalten	-9.56447
▁Lebensmittel	-9.56593
▁stage	-9.56684
term	-9.56826
▁capital	-9.56889
▁Whi	-9.57014
▁Über	-9.57123
▁Rede	-9.57153
▁To	-9.5719
▁leisten	-9.57222
▁stand	-9.57236
▁completely	-9.57236
▁France	-9.57255
▁Öffentlichkeit	-9.57263
est	-9.57272
▁established	-9.5734
▁structural	-9.5737
▁stimmen	-9.57694
▁arbeiten	-9.57731
▁12	-9.57835
▁One	-9.57836
▁liebe	-9.57839
▁power	-9.57858
g	-9.57932
▁value	-9.58076
▁macht	-9.5823
▁priorities	-9.584
▁liberalisation	-9.58419
▁priority	-9.58421
▁cross	-9.5843
▁absolutely	-9.58431
▁strengthen	-9.58434
▁global	-9.58458
▁consequences	-9.58538
▁Grenzen	-9.58634
▁agreed	-9.58646
▁request	-9.58739
▁either	-9.58846
▁final	-9.59071
▁job	-9.59089
▁Ou	-9.59186
▁Austrian	-9.59202
▁mehrere	-9.59593
▁Ratspräsident	-9.59621
▁held	-9.59635
▁prüfen	-9.5968
coming	-9.59689
▁gebracht	-9.59762
▁13	-9.59998
▁freue	-9.60068
▁Ergebnisse	-9.60075
▁relevant	-9.60115
▁angesprochen	-9.60178
▁Verträge	-9.60204
▁Punkte	-9.60331
Office	-9.6044
▁model	-9.6045
making	-9.60579
▁operation	-9.60665
▁damage	-9.60757
▁behandelt	-9.60791
▁Tampere	-9.60852
▁practical	-9.60913
▁aufgenommen	-9.60916
▁heard	-9.60946
▁monitoring	-9.60955
▁closed	-9.60997
▁zusammen	-9.61186
▁equal	-9.61209
▁aspects	-9.61249
▁Sinne	-9.61262
▁Sache	-9.61262
▁t	-9.61325
▁Post	-9.61354
▁voted	-9.61424
▁propose	-9.61449
▁Monaten	-9.61493
▁plan	-9.61538
▁consideration	-9.61617
▁unterschiedlich	-9.61775
▁inter	-9.61936
▁business	-9.61972
▁m	-9.62033
▁crisis	-9.62101
▁research	-9.62102
▁opportunities	-9.62103
▁applied	-9.62122
▁namely	-9.62132
▁gemäß	-9.62286
c	-9.62313
▁w	-9.62382
▁beitragen	-9.62633
▁Vertrauen	-9.62721
▁zweiten	-9.6274
▁Solidarität	-9.62797
▁Seite	-9.62799
▁Folgen	-9.62821
▁schnell	-9.6298
▁demand	-9.63179
de	-9.63241
▁she	-9.63282
▁kurz	-9.63322
▁Lomé	-9.63367
▁OLAF	-9.63367
▁minimum	-9.63368
▁Türkei	-9.63368
▁unacceptable	-9.63377
▁hinweisen	-9.6338
▁foreign	-9.63415
▁received	-9.63447
▁läßt	-9.63453
▁limited	-9.63458
▁raised	-9.63473
▁Balkan	-9.63485
▁central	-9.63615
▁organisations	-9.63635
▁Ressourcen	-9.63825
▁keep	-9.63918
▁danke	-9.6397
▁erster	-9.6399
▁vergangene	-9.64079
▁discussions	-9.64109
▁Weißbuch	-9.64112
▁Angelegenheit	-9.6412
▁Daten	-9.64122
▁allein	-9.643
­	-9.6433
▁erneut	-9.64571
▁stärker	-9.64578
▁poverty	-9.6465
▁referred	-9.64656
▁specifically	-9.64666
▁bleibt	-9.64697
▁gesprochen	-9.6472
▁according	-9.64873
▁fish	-9.64909
▁Antrag	-9.64978
▁gehören	-9.65054
▁stress	-9.65142
to	-9.65336
▁live	-9.6539
▁Steuer	-9.65394
▁reference	-9.65413
▁practice	-9.65436
▁balance	-9.65475
ischen	-9.65803
▁Tourismus	-9.65911
▁hingewiesen	-9.65949
▁bessere	-9.65952
▁living	-9.65972
▁Um	-9.66004
▁Katastrophe	-9.66262
▁considered	-9.66282
▁colleagues	-9.66314
▁vorliegenden	-9.6634
▁führt	-9.66513
▁provision	-9.66706
▁Forderung	-9.66734
▁seiten	-9.66799
▁Zweifel	-9.66953
▁date	-9.67124
▁Instrument	-9.6717
▁defence	-9.67264
▁BSE	-9.67264
▁Abschließend	-9.67265
▁außerdem	-9.6727
▁creating	-9.67277
▁bodies	-9.67282
▁Aufgaben	-9.67285
▁sorgen	-9.67288
▁entwickeln	-9.67289
▁Verbindung	-9.67292
▁reached	-9.67394
▁potential	-9.67487
▁Abgeordneter	-9.67623
▁comments	-9.67693
▁reach	-9.67707
▁Entwicklungs	-9.67734
▁gleich	-9.67748
▁Macedonia	-9.6779
▁euro	-9.67945
▁represent	-9.6795
▁crime	-9.68096
▁derartige	-9.68276
▁liegen	-9.6828
▁significant	-9.68555
▁IGC	-9.68595
▁Vergangenheit	-9.68598
▁Aufmerksamkeit	-9.68598
▁quickly	-9.68604
▁vergessen	-9.68608
▁Zeitraum	-9.68631
▁broad	-9.68848
▁coming	-9.68861
▁ver	-9.68865
▁Ihr	-9.68875
▁Programms	-9.68885
Arbeitslosigkeit	-9.68887
▁tell	-9.68929
▁products	-9.68969
▁darstellt	-9.68995
▁regionale	-9.69132
▁Mitglieder	-9.69273
▁reports	-9.69302
▁Directive	-9.69352
▁consumer	-9.69448
▁effects	-9.69467
▁Natürlich	-9.69489
▁goods	-9.69489
rought	-9.69585
▁exchange	-9.69597
▁views	-9.69706
▁Ansatz	-9.69761
▁behind	-9.69931
▁Treaties	-9.69948
▁Charter	-9.6995
▁everything	-9.69952
▁scientific	-9.69959
▁left	-9.69968
▁judicial	-9.6997
▁Agenda	-9.69991
▁Ausführungen	-9.70007
▁finally	-9.70016
▁Währung	-9.70103
▁verstehen	-9.70266
▁expect	-9.70353
▁turn	-9.70441
▁total	-9.7049
▁Binnenmarkt	-9.70652
▁administration	-9.70773
▁Änderungen	-9.70789
▁conclusion	-9.70791
▁partnership	-9.70806
▁30	-9.70828
▁instruments	-9.70887
▁implement	-9.70974
▁betroffen	-9.71165
▁Werte	-9.71167
▁Armut	-9.71221
▁ganze	-9.71226
▁connection	-9.71319
▁difficulties	-9.71339
▁sectors	-9.71402
▁decided	-9.71429
▁Regelung	-9.71476
▁increased	-9.71511
▁list	-9.71549
uring	-9.71562
om	-9.71607
▁intend	-9.71767
▁Gesundheit	-9.71783
▁vorgeschlagen	-9.71863
▁Dinge	-9.71912
▁zurück	-9.72021
▁durchgeführt	-9.72113
▁K	-9.72139
▁motion	-9.72212
▁Einsatz	-9.72215
▁cause	-9.7223
▁Amendments	-9.7234
▁discuss	-9.72359
her	-9.72548
▁Fortschritte	-9.72665
▁civil	-9.72702
▁überhaupt	-9.72708
▁Absatz	-9.72709
▁Finanzierung	-9.72777
mindest	-9.72803
▁Fonds	-9.72811
▁Konferenz	-9.72823
▁per	-9.72874
▁se	-9.72919
▁ought	-9.72989
▁Justiz	-9.72993
▁stated	-9.73107
▁firstly	-9.73108
▁Do	-9.7311
▁Ihrer	-9.73233
▁J	-9.73234
▁geleistet	-9.73368
▁Of	-9.73443
▁begin	-9.73497
▁Zypern	-9.73538
▁movement	-9.73582
▁assessment	-9.73616
▁amount	-9.73674
▁found	-9.73844
▁home	-9.7398
▁technische	-9.73991
▁dringend	-9.74108
▁Kinnock	-9.74115
▁Abschluß	-9.74132
▁everyone	-9.74137
▁Verteidigung	-9.74163
▁vehicles	-9.74196
▁beschlossen	-9.74255
▁heutigen	-9.74362
▁status	-9.74396
▁When	-9.74397
▁Hohe	-9.745
▁takes	-9.74651
▁Information	-9.74722
▁accession	-9.74761
▁El	-9.74879
▁challenge	-9.74898
▁content	-9.75047
ous	-9.75222
ness	-9.75325
▁relat	-9.75348
▁fast	-9.7548
▁Kenntnis	-9.75516
▁Ireland	-9.75544
▁November	-9.75544
▁currency	-9.75544
▁Zustimmung	-9.75544
▁possibility	-9.75544
▁myself	-9.7555
▁overall	-9.75566
▁Portugal	-9.75567
▁vital	-9.7557
▁meisten	-9.75574
▁übernehmen	-9.75598
lbstverständlich	-9.75609
▁businesses	-9.75716
▁created	-9.7575
▁Richtlinien	-9.75815
▁Republik	-9.75904
▁establishing	-9.7598
▁men	-9.76042
▁Verwendung	-9.76069
▁reduce	-9.76103
▁plans	-9.76189
▁portugiesische	-9.762
▁verbunden	-9.76233
▁recognise	-9.76403
▁response	-9.76468
▁week	-9.76476
▁days	-9.76492
▁Tat	-9.76557
▁intervention	-9.76565
▁Zahl	-9.76594
▁fair	-9.76962
▁post	-9.76967
▁Barnier	-9.76993
▁österreichische	-9.76994
▁participation	-9.76995
▁establishment	-9.77006
▁outside	-9.7703
▁Nations	-9.77053
▁Tag	-9.77071
▁produce	-9.77209
▁Erfolg	-9.77259
▁raise	-9.77447
▁Gründen	-9.77511
▁events	-9.77521
▁Ort	-9.77635
▁Frankreich	-9.77897
▁stop	-9.77977
▁bitten	-9.7806
th	-9.78107
▁forces	-9.7822
▁focus	-9.78288
▁14	-9.78419
▁Social	-9.78456
▁1995	-9.78463
▁presidency	-9.78464
▁unbedingt	-9.78464
▁Lienemann	-9.78476
▁direction	-9.78478
▁Anstrengungen	-9.78486
▁strategic	-9.78506
▁somit	-9.78669
▁speakers	-9.78674
▁Regeln	-9.78693
schaft	-9.78723
▁unternehmen	-9.78907
an	-9.78912
▁draw	-9.78934
▁Dokument	-9.78942
▁Linie	-9.7905
▁11	-9.79343
▁contribute	-9.79369
▁Position	-9.79423
▁effort	-9.79427
▁internationale	-9.7946
▁eingehen	-9.79585
▁Übereinkommen	-9.79748
▁gleichen	-9.79785
▁Protokoll	-9.79932
▁Beginn	-9.79955
▁verehrte	-9.79956
▁communities	-9.79958
▁production	-9.79968
▁extend	-9.79984
▁recently	-9.80071
▁Gesetzgebung	-9.80096
▁thus	-9.8012
▁al	-9.80142
▁genommen	-9.8021
▁Falle	-9.80212
▁involve	-9.8023
▁Prioritäten	-9.80572
lichkeit	-9.80576
▁Untersuchung	-9.80586
▁Africa	-9.80676
▁portugiesischen	-9.80781
▁künftig	-9.8082
▁sitting	-9.80916
▁levels	-9.80982
▁East	-9.81056
▁cover	-9.81074
spite	-9.81081
▁direkt	-9.81169
▁Worte	-9.81191
▁poor	-9.81242
▁directives	-9.81256
▁Ge	-9.81303
▁speech	-9.81339
▁hätten	-9.81401
▁huge	-9.8147
▁capacity	-9.81471
▁Annahme	-9.81486
▁analysis	-9.81486
▁reality	-9.81493
▁police	-9.81527
▁south	-9.81602
ic	-9.81664
nahme	-9.81694
▁away	-9.81715
▁note	-9.81832
▁goes	-9.8184
▁ever	-9.81901
ment	-9.81955
▁comment	-9.8245
▁Mal	-9.82512
▁times	-9.82516
▁Unsere	-9.8265
▁nachhaltige	-9.82673
▁Zugang	-9.82702
▁rule	-9.82768
▁leben	-9.82857
▁repeat	-9.82928
▁ergreifen	-9.82931
▁bestimmten	-9.8299
▁Hulten	-9.83009
▁labour	-9.83009
▁Justice	-9.83009
▁precaution	-9.8301
▁Achtung	-9.83012
▁creation	-9.8303
▁parliamentary	-9.8304
▁natural	-9.8305
▁Charta	-9.83059
▁urge	-9.83225
▁event	-9.83376
ve	-9.83393
▁Balkans	-9.8344
sfähigkeit	-9.83471
giving	-9.83701
▁Regional	-9.84044
▁send	-9.8407
▁möglichst	-9.84499
▁Human	-9.84519
▁Nielson	-9.84573
▁pollution	-9.84574
▁unfortunately	-9.84589
▁Republic	-9.84597
▁sicherlich	-9.84602
▁How	-9.84624
▁lot	-9.84659
▁around	-9.84665
▁sieht	-9.84686
gen	-9.8483
sverfahren	-9.84835
▁erwarten	-9.8485
▁Schlußfolgerung	-9.84851
▁International	-9.84995
▁Stabilität	-9.85162
▁powers	-9.85261
▁derzeitige	-9.85321
▁Lebens	-9.85415
▁getroffen	-9.85428
▁Fund	-9.85539
▁Aspekte	-9.85636
▁called	-9.85847
▁March	-9.86019
▁Inhalt	-9.86138
▁protect	-9.86148
▁März	-9.86158
▁Globalisierung	-9.86216
▁akzeptieren	-9.86231
▁affairs	-9.86275
sen	-9.86305
▁Veränderungen	-9.86319
▁betonen	-9.8634
▁III	-9.86399
▁enable	-9.86414
▁Kraft	-9.8675
▁Kollege	-9.86982
▁beteiligt	-9.87146
▁bestehende	-9.87163
▁Tätigkeit	-9.87292
▁using	-9.87344
▁geschaffen	-9.87476
▁six	-9.87509
▁Hand	-9.87663
▁Fremdenverkehr	-9.87707
▁successful	-9.87716
▁parts	-9.87719
▁Bewertung	-9.87732
▁offensichtlich	-9.87768
▁staff	-9.87771
▁Dimension	-9.87772
▁message	-9.87772
▁Development	-9.87773
▁Assembly	-9.87774
▁applies	-9.87775
▁verfügen	-9.87789
border	-9.8779
▁enthält	-9.87796
▁Regionalpolitik	-9.87812
▁January	-9.8782
▁Brussels	-9.87823
ar	-9.87847
▁company	-9.87853
▁9	-9.87869
▁Geschichte	-9.87896
▁warum	-9.879
▁caused	-9.87902
▁diejenigen	-9.87915
▁Transport	-9.87964
▁discussing	-9.88061
▁gab	-9.88166
▁Verpflichtungen	-9.88203
re	-9.88257
▁schwer	-9.8828
▁Beteilig	-9.88303
▁affect	-9.88367
▁Regelungen	-9.88369
▁treffen	-9.8838
by	-9.88408
▁Beitritt	-9.88414
▁Co	-9.88477
▁entschieden	-9.88567
▁neuer	-9.88578
▁Woche	-9.88611
▁jedes	-9.88728
▁refer	-9.88758
▁wesentlich	-9.88809
▁explain	-9.88887
▁aspect	-9.8889
▁einiger	-9.88947
▁Uni	-9.88995
▁Staat	-9.89045
▁jene	-9.89289
▁guten	-9.89304
General	-9.89304
▁Januar	-9.89361
▁trotz	-9.89398
▁Diskriminierung	-9.89412
▁Therefore	-9.89418
▁beginning	-9.89419
▁scope	-9.89419
▁insgesamt	-9.89439
▁ehemalige	-9.89445
▁befinden	-9.89492
▁Personen	-9.89563
▁discrimination	-9.89604
▁ziehen	-9.89788
▁wishes	-9.89812
▁independent	-9.89852
▁pre	-9.90095
▁Viel	-9.90123
▁Haushalt	-9.90177
▁happen	-9.90217
▁Grundsätze	-9.90279
▁Sorge	-9.90291
▁office	-9.9035
▁Überwachung	-9.90383
most	-9.90449
▁measure	-9.90455
▁Plenum	-9.90517
▁Vereinbarung	-9.90547
▁purpose	-9.9062
gleich	-9.90672
▁verpflichtet	-9.90675
▁Vereinte	-9.9069
▁gerecht	-9.90699
▁similar	-9.91029
▁negative	-9.91056
▁September	-9.91078
▁morning	-9.91079
▁Indeed	-9.91079
▁Monti	-9.9108
▁Some	-9.91082
▁ensuring	-9.91099
▁activity	-9.91103
▁medium	-9.91107
▁direct	-9.9112
▁nochmals	-9.91122
▁Brüssel	-9.9113
▁gewesen	-9.91131
▁equality	-9.91154
▁victims	-9.91155
▁zeigt	-9.91161
▁Nun	-9.91173
▁administrative	-9.9123
▁umgesetzt	-9.91261
▁absolut	-9.91302
▁Hersteller	-9.9131
▁borders	-9.91424
▁contain	-9.91448
▁officials	-9.9145
ting	-9.91468
5	-9.91502
▁former	-9.91552
▁Dah	-9.91707
▁led	-9.91723
▁Maße	-9.91724
▁conclusions	-9.91725
▁Initiativen	-9.91879
▁anderer	-9.92081
▁compromise	-9.92114
▁sogenannte	-9.92118
▁require	-9.92131
The	-9.92147
▁structure	-9.92165
▁Organisation	-9.9225
▁emphasise	-9.9225
▁shown	-9.92257
▁Krieg	-9.92319
▁spezielle	-9.92539
▁Februar	-9.92723
▁Public	-9.92772
FR	-9.92773
▁subsidiarity	-9.92773
▁Anerkennung	-9.92773
▁Heute	-9.92774
▁scheint	-9.92779
▁dadurch	-9.92803
▁Versammlung	-9.92884
▁nimmt	-9.92894
▁seriously	-9.92982
▁intention	-9.92986
us	-9.93025
ive	-9.93119
▁simple	-9.93331
▁Landes	-9.93376
▁z	-9.93433
▁besten	-9.9347
▁nor	-9.93484
▁tasks	-9.93616
▁konnte	-9.93702
▁offer	-9.93719
and	-9.93879
▁innovative	-9.93903
fern	-9.93922
up	-9.93939
▁60	-9.93944
▁price	-9.94143
▁Welche	-9.94234
▁Absicht	-9.94248
▁complete	-9.94349
▁verbessern	-9.9454
▁sämtliche	-9.94554
le	-9.94561
▁elected	-9.94613
▁properly	-9.94617
▁along	-9.94655
▁thought	-9.94662
early	-9.94672
▁active	-9.94716
▁spirit	-9.94727
ory	-9.94729
▁ihres	-9.94769
▁reforms	-9.9478
▁universal	-9.94885
▁ausreichend	-9.94973
+	-9.95165
▁Wochen	-9.95348
▁Stelle	-9.95399
sprozeß	-9.95406
▁entscheidende	-9.95465
▁Behörde	-9.95482
▁disasters	-9.95535
▁sage	-9.95593
▁pressure	-9.95689
sicherheit	-9.95711
▁gelten	-9.95712
▁unabhängig	-9.95718
▁Sinn	-9.95724
▁Anfang	-9.95924
▁u	-9.96079
or	-9.96086
▁fragen	-9.96099
▁Ejido	-9.9625
▁Kouchner	-9.9625
▁Internet	-9.96251
▁yesterday	-9.96251
▁Schroedter	-9.96251
▁contrary	-9.96252
▁liability	-9.96253
▁stets	-9.96256
▁Bedenken	-9.96257
▁beyond	-9.96257
▁darstellen	-9.96266
▁zweifellos	-9.96279
▁anything	-9.9628
▁Vo	-9.96281
▁planning	-9.96285
▁feststellen	-9.96287
▁granted	-9.96317
▁February	-9.96329
▁FYROM	-9.96334
▁helfen	-9.96336
▁größte	-9.96361
▁setting	-9.9643
▁positiv	-9.96586
▁Empfehlungen	-9.96653
▁Environment	-9.96739
▁St	-9.96741
▁entwickelt	-9.9676
▁provid	-9.96875
▁Beschäftigungs	-9.97205
▁Maßnahme	-9.97224
▁encourage	-9.97356
▁Unterschiede	-9.97385
▁Kinder	-9.97521
▁Verkehr	-9.97593
▁Prüfung	-9.97593
▁rasch	-9.97815
▁Druck	-9.97971
▁urgent	-9.9798
▁Reformen	-9.98006
▁1996	-9.98035
▁People	-9.98036
▁Basque	-9.98036
▁Mozambique	-9.98036
▁Furthermore	-9.98037
▁circumstances	-9.98053
▁eingesetzt	-9.98061
▁2002	-9.98064
▁Delegation	-9.98064
▁Modernisierung	-9.98065
▁erfüllen	-9.98068
▁Nur	-9.98077
▁integrated	-9.98089
▁jeweiligen	-9.98092
▁Beschluß	-9.98096
▁nutzen	-9.98102
▁respond	-9.98105
▁voting	-9.98149
▁eher	-9.98156
▁chance	-9.98159
▁beglückwünschen	-9.98165
▁discussed	-9.98177
▁reading	-9.98213
▁manufacturers	-9.98426
▁useful	-9.98481
▁developed	-9.98576
▁hear	-9.98579
▁waste	-9.98588
▁kleinen	-9.98621
▁Industrie	-9.98641
▁gewisse	-9.9886
▁documents	-9.98923
▁letzte	-9.98938
▁erwähnt	-9.99004
▁Ausrichtung	-9.99069
spräsident	-9.99235
▁geäußert	-9.99249
▁Nicht	-9.9941
▁heart	-9.99446
▁grundlegende	-9.99495
▁Ministers	-9.99545
▁anti	-9.99609
▁entire	-9.99788
▁möchten	-9.99812
▁care	-9.99816
▁probably	-9.99854
▁territory	-9.99854
▁maritime	-9.99856
▁Rechtsgrundlage	-9.99858
▁konzentrieren	-9.99859
▁Aufnahme	-9.99864
▁knowledge	-9.9987
▁submitted	-9.99882
▁gestimmt	-9.99913
▁reasonable	-9.99922
▁recycling	-9.99936
▁gesetzt	-9.99941
Staaten	-10
▁zustimmen	-10
▁ändern	-10.0003
▁introduce	-10.0003
▁happening	-10.0013
▁Finanz	-10.0013
▁substances	-10.0013
▁thanks	-10.0015
▁Macht	-10.0024
▁beginnen	-10.0026
▁lokalen	-10.0035
▁Vorschlägen	-10.0055
beziehung	-10.0066
as	-10.0078
▁supported	-10.0078
▁looking	-10.0081
▁original	-10.0082
▁Aspekt	-10.0084
▁delay	-10.0086
▁wesentliche	-10.0107
▁steps	-10.0111
▁Prinzip	-10.0111
▁representative	-10.0118
▁Folge	-10.0121
▁wirtschaftlich	-10.014
▁sort	-10.015
▁Seiten	-10.0156
▁Seattle	-10.0171
▁kaum	-10.0171
▁Since	-10.0171
▁Theato	-10.0171
▁weshalb	-10.0172
▁Nevertheless	-10.0173
▁sufficient	-10.0174
▁politics	-10.0174
▁diskutieren	-10.0175
▁agricultural	-10.0175
▁directly	-10.0178
▁introduced	-10.0182
▁developments	-10.0183
▁Spain	-10.0186
▁later	-10.0188
▁Kriterien	-10.0193
▁kommende	-10.0202
▁wiederholen	-10.0212
▁approve	-10.0214
▁island	-10.0216
00	-10.022
▁Fällen	-10.0223
til	-10.0223
i	-10.0223
▁18	-10.0229
▁folgende	-10.0237
▁37	-10.0238
▁konkret	-10.0244
▁wider	-10.0274
▁ex	-10.0274
▁erfolgreich	-10.0278
▁8	-10.0286
is	-10.0289
▁Parteien	-10.0295
▁colleague	-10.0306
▁wide	-10.0308
▁wichtiger	-10.0314
▁correct	-10.0341
▁Kampf	-10.0359
▁genug	-10.0359
▁Wunsch	-10.0359
▁Andersson	-10.0359
▁Schließlich	-10.0359
▁ambitious	-10.0359
▁USA	-10.0359
▁Yet	-10.0359
▁geschehen	-10.0362
▁Anforderungen	-10.0362
Das	-10.0364
▁obviously	-10.0364
▁farmers	-10.0367
▁construction	-10.0369
▁neu	-10.0376
▁Durch	-10.0384
▁dealing	-10.0397
▁rightly	-10.0403
▁Erfahrungen	-10.0404
▁oft	-10.0406
▁Denn	-10.0422
▁Grunde	-10.0424
▁weeks	-10.0428
▁entscheiden	-10.0431
▁institutional	-10.0441
▁avoid	-10.0441
smitglied	-10.0452
▁verfolgt	-10.0455
▁cut	-10.0468
▁leave	-10.0471
▁öffentliche	-10.0477
ungen	-10.0487
▁sea	-10.0492
▁demokratisch	-10.0496
▁product	-10.0502
▁risks	-10.0503
▁gesehen	-10.0508
▁confirm	-10.0543
▁ecological	-10.0548
▁Swoboda	-10.0552
▁concrete	-10.0552
▁Festlegung	-10.0552
▁Umfang	-10.0552
▁Europol	-10.0552
▁agriculture	-10.0552
▁Gegenteil	-10.0552
▁globalisation	-10.0552
▁vielmehr	-10.0552
▁earlier	-10.0553
▁December	-10.0554
▁versuchen	-10.0555
▁verantwortlich	-10.0556
▁verfolgen	-10.0557
▁Hause	-10.0557
▁half	-10.0569
▁totally	-10.0569
▁effectively	-10.0571
▁Mein	-10.0573
▁allgemein	-10.0586
▁conclude	-10.0593
▁seem	-10.0593
▁Stimme	-10.0597
▁genannten	-10.0599
▁französischen	-10.0603
aus	-10.0614
▁structures	-10.0616
▁stehende	-10.0621
▁wären	-10.0624
▁resolutions	-10.0636
santrag	-10.0639
OM	-10.065
▁".	-10.0659
▁eingebracht	-10.0662
▁Opfer	-10.0667
▁Haushalts	-10.067
▁wi	-10.0671
▁40	-10.0676
▁Gegen	-10.068
▁Partnerschaft	-10.0683
▁geworden	-10.0689
▁eigen	-10.0697
schließlich	-10.0705
▁festgestellt	-10.0714
▁zudem	-10.0716
▁Handel	-10.0718
▁dienen	-10.0723
▁Bildung	-10.0725
▁Alle	-10.0739
▁Greece	-10.0748
▁Praxis	-10.0748
▁amtierende	-10.0748
▁Today	-10.0748
▁history	-10.0749
▁convergence	-10.0751
▁flexibility	-10.0751
▁continuing	-10.0751
▁committed	-10.0751
▁nennen	-10.0755
▁spielen	-10.0757
wirtschaft	-10.0758
▁Ist	-10.0762
▁thinking	-10.0763
▁Gerichtshof	-10.077
▁später	-10.0774
▁speziell	-10.0775
▁Vorsorgeprinzip	-10.0781
▁serve	-10.0782
▁body	-10.0783
▁Dar	-10.0785
▁Schritte	-10.0785
European	-10.0798
▁ethnic	-10.0799
▁initial	-10.08
(1999)	-10.0803
▁Einfluß	-10.0803
▁pro	-10.0819
▁challenges	-10.0822
▁erklärt	-10.0828
▁threat	-10.0829
▁Is	-10.0829
▁konnten	-10.0839
▁Erfahrung	-10.0839
wegen	-10.0865
▁ständig	-10.087
▁Erklärungen	-10.0872
▁Monate	-10.0883
▁erforderlichen	-10.0889
▁Verpflichtung	-10.0894
▁rate	-10.0897
▁forth	-10.0898
▁ermöglicht	-10.0905
▁De	-10.0912
▁ways	-10.0928
▁concept	-10.0933
▁Dienst	-10.0937
▁safeguard	-10.0938
▁La	-10.0947
▁duty	-10.0947
▁Joint	-10.0948
▁Spanish	-10.0948
▁Dezember	-10.0948
▁Economic	-10.0948
▁study	-10.0948
▁Einhaltung	-10.0949
▁promoting	-10.095
▁vorlegen	-10.0951
▁comprehensive	-10.0951
▁befassen	-10.0951
▁Now	-10.0951
▁menschliche	-10.0954
▁efficient	-10.0954
be	-10.0957
▁Italien	-10.0958
▁Natur	-10.0959
▁elections	-10.0962
range	-10.0968
▁accepted	-10.0973
▁Osten	-10.0974
▁Augen	-10.0978
▁low	-10.0984
▁grounds	-10.0995
▁receive	-10.1004
ierung	-10.1006
▁Preis	-10.101
▁session	-10.1011
▁speaking	-10.1014
▁demands	-10.1032
▁geehrte	-10.1045
▁Völker	-10.1071
▁factor	-10.1119
bezüglich	-10.1121
▁2000-2006	-10.1122
▁fear	-10.1136
▁gern	-10.1142
▁review	-10.1143
▁known	-10.1148
▁nunmehr	-10.1152
▁involvement	-10.1152
▁exactly	-10.1153
▁British	-10.1155
▁across	-10.1155
▁attitude	-10.1155
▁approval	-10.1156
▁letter	-10.1156
▁hinter	-10.1158
responsibilities	-10.1164
▁closely	-10.1164
▁gekommen	-10.1165
▁refugees	-10.1167
▁addressed	-10.1171
▁fraud	-10.1172
EU	-10.1173
bedingungen	-10.1185
▁allowed	-10.1186
▁recommendations	-10.1186
▁Democrats	-10.1188
▁By	-10.1192
▁contains	-10.12
▁1.	-10.1209
▁sound	-10.1215
usw	-10.1227
▁Commissioners	-10.1251
b	-10.1253
▁weltweit	-10.1255
▁remains	-10.1255
▁hoch	-10.1261
▁Fraktionen	-10.1272
▁Arbeitsplätzen	-10.1293
▁Widerspruch	-10.1295
▁Gruppe	-10.1298
▁statements	-10.1299
▁sehe	-10.1302
▁relationship	-10.1305
▁sechs	-10.1305
▁Überzeugung	-10.1313
B	-10.1314
▁Gericht	-10.1339
▁forms	-10.1341
COS	-10.1349
▁rise	-10.1351
▁Seit	-10.1352
▁flexible	-10.1358
▁Wogau	-10.1359
▁fellow	-10.136
▁Although	-10.136
▁Objective	-10.136
▁entspricht	-10.136
▁braucht	-10.1361
▁Nutzung	-10.1361
▁gestalten	-10.1362
▁alone	-10.1362
▁convinced	-10.1362
▁enormous	-10.1364
▁north	-10.1365
▁manner	-10.1365
▁children	-10.1367
▁situations	-10.1368
▁Zuständigkeit	-10.137
▁happened	-10.1371
▁nuclear	-10.1372
▁Einige	-10.1373
▁Kontrollen	-10.1376
▁Subsidiarität	-10.1382
▁self	-10.1393
▁parliaments	-10.1395
▁base	-10.1399
▁Gewalt	-10.1413
sichtlich	-10.1417
▁Unser	-10.1426
maßnahmen	-10.1432
▁consumers	-10.1442
▁Problemen	-10.1445
▁partners	-10.145
▁echte	-10.1459
▁late	-10.1464
▁hold	-10.147
industrie	-10.1475
▁drawn	-10.1476
▁aims	-10.1478
▁Ausbildung	-10.1479
▁Harmonisierung	-10.1487
hin	-10.1493
▁participate	-10.1495
▁müßte	-10.1495
▁stimme	-10.1496
▁vorgeschlagenen	-10.1498
▁Wachstum	-10.1499
▁je	-10.1507
▁Mosambik	-10.1512
▁ausschließlich	-10.1514
▁Irland	-10.1515
▁positions	-10.1515
▁Schweden	-10.1516
▁defend	-10.1519
▁improvement	-10.1521
▁dimension	-10.1522
▁paragraph	-10.1524
▁grant	-10.1528
▁fall	-10.1538
▁persönlich	-10.1546
▁build	-10.1549
▁Zielen	-10.155
▁e	-10.1552
▁Wert	-10.1563
▁remote	-10.1572
▁Lisbon	-10.1572
▁Anlaß	-10.1572
▁Palacio	-10.1573
▁Lissabon	-10.1573
▁presence	-10.1573
▁humanitarian	-10.1573
▁remember	-10.1573
▁betreffend	-10.1574
▁jegliche	-10.1574
▁Stellung	-10.1574
▁Thirdly	-10.1575
▁High	-10.1576
▁Report	-10.1576
▁Grundrechte	-10.158
▁arrangements	-10.1582
▁April	-10.1583
▁Worten	-10.1588
▁sensitive	-10.159
▁notwendigen	-10.1598
▁building	-10.1606
▁Aktionen	-10.1607
▁Mitteln	-10.1618
▁reduc	-10.1618
▁transparent	-10.1636
▁requires	-10.1643
einander	-10.1648
▁operations	-10.1652
▁word	-10.1664
▁Projekt	-10.1684
ecurity	-10.1705
▁sagt	-10.1714
▁schwierig	-10.1716
▁detail	-10.1727
▁reduction	-10.1733
▁return	-10.1739
▁road	-10.1743
▁Spanien	-10.1752
▁Israeli	-10.1756
▁Kompromiß	-10.1763
▁Energie	-10.1765
▁Not	-10.1765
▁Ob	-10.1767
▁einheitliche	-10.1768
▁gefährliche	-10.1772
laid	-10.1778
▁Forschung	-10.1779
▁reject	-10.1788
▁annual	-10.1789
▁WTO	-10.179
▁Brok	-10.179
▁Vitorino	-10.179
▁Eindruck	-10.179
▁critical	-10.1792
▁improving	-10.1793
▁immediately	-10.1793
▁lost	-10.1793
▁wahrscheinlich	-10.1793
▁Yugoslavia	-10.1794
▁Germany	-10.1794
▁additional	-10.1795
▁Drittens	-10.1797
▁paid	-10.1798
▁erkennen	-10.1799
▁erfolgen	-10.1801
▁sensible	-10.1802
▁entscheidend	-10.1811
▁highly	-10.1812
▁informed	-10.1813
▁improved	-10.1813
▁Dienstleistung	-10.1814
▁normal	-10.1825
▁amend	-10.1833
▁erhebliche	-10.1833
schen	-10.1843
▁strategische	-10.1854
▁Gleichstellung	-10.1861
▁gleiche	-10.1864
▁lives	-10.1876
ish	-10.1881
tended	-10.1885
▁Postdienste	-10.1892
ce	-10.1901
k	-10.1912
of	-10.192
▁limit	-10.1922
the	-10.1923
▁relate	-10.1924
▁Fern	-10.1926
▁guarantees	-10.1931
▁attempt	-10.1932
▁pa	-10.1937
▁asking	-10.1937
▁Gründe	-10.1939
▁mere	-10.1952
▁billion	-10.1956
▁delegation	-10.1957
▁Katastrophen	-10.1959
▁Voraussetzung	-10.1959
▁ground	-10.1964
▁Tibet	-10.1971
▁land	-10.1977
▁Besorgnis	-10.1978
▁überzeugt	-10.1987
▁häufig	-10.1988
▁höhere	-10.1988
▁obvious	-10.2006
▁rapid	-10.2006
▁adequate	-10.2007
▁external	-10.2008
▁Tourism	-10.2011
▁Katiforis	-10.2012
▁WIPO	-10.2012
▁Fischler	-10.2012
▁Aufbau	-10.2012
▁sometimes	-10.2013
▁hervorheben	-10.2013
▁asylum	-10.2013
▁else	-10.2013
▁ergriffen	-10.2014
▁außerhalb	-10.2014
▁carefully	-10.2015
▁geschieht	-10.2015
▁secure	-10.2016
▁gelangen	-10.2018
▁gefunden	-10.2018
▁easy	-10.2018
▁decide	-10.2019
▁zeigen	-10.2019
▁einsetzen	-10.202
▁governance	-10.202
▁80	-10.202
▁experts	-10.2024
▁lösen	-10.2025
▁prevention	-10.2027
▁Rule	-10.2029
▁financing	-10.203
▁Investitionen	-10.2033
▁Sweden	-10.204
ubject	-10.2046
▁Autos	-10.2055
Fraktion	-10.2064
stellung	-10.2065
▁starke	-10.2073
ausschuß	-10.2098
▁Vorbereitung	-10.2102
▁appear	-10.2109
▁personal	-10.2121
▁signed	-10.2125
▁eingegangen	-10.2127
▁Even	-10.2133
▁ausdrücklich	-10.2133
▁verwendet	-10.2137
▁diskutiert	-10.2138
▁Sektor	-10.2139
▁Sozialschutz	-10.214
▁solutions	-10.2143
▁ideas	-10.2155
keit	-10.2157
▁nächste	-10.2158
▁Vermittlung	-10.2168
▁discharge	-10.2171
▁schwerwiegende	-10.2172
▁militärische	-10.2173
▁wer	-10.2174
▁leicht	-10.2178
▁Risiko	-10.2183
▁consultation	-10.2184
▁coast	-10.2185
▁Unter	-10.2194
f	-10.2201
▁Präsidenten	-10.2211
▁Moment	-10.2215
▁umfassende	-10.2222
▁seek	-10.2222
▁akzeptiert	-10.2223
▁f	-10.2227
▁Schiffe	-10.2229
ssen	-10.2234
▁Sicherheits	-10.2236
▁Bolkestein	-10.2239
▁century	-10.2239
▁instead	-10.2239
▁Italian	-10.2239
▁Italy	-10.2239
▁Stärkung	-10.2239
▁appeal	-10.2241
parlamentarische	-10.2242
▁sanctions	-10.2243
▁referring	-10.2244
▁additives	-10.2245
▁betrachtet	-10.2248
▁Überlegungen	-10.2255
▁employees	-10.2256
▁Struktur	-10.2267
▁differences	-10.2273
ave	-10.229
▁regret	-10.2299
one	-10.2306
called	-10.2307
▁1994	-10.2312
▁hoffen	-10.2313
▁Zur	-10.2313
zeit	-10.2315
organisationen	-10.2325
▁Hauses	-10.2329
▁listen	-10.2332
▁join	-10.2335
▁versucht	-10.2351
z	-10.237
▁fund	-10.2389
▁desire	-10.2394
▁Organe	-10.24
▁achiev	-10.2401
smaßnahmen	-10.2415
▁outcome	-10.2415
▁Realität	-10.2416
▁Pflicht	-10.2417
▁conference	-10.2418
▁Empfehlung	-10.2418
▁paper	-10.2419
▁strand	-10.2421
▁official	-10.2427
eben	-10.2432
▁young	-10.2433
▁learn	-10.2439
▁danger	-10.2471
▁Chamber	-10.2472
▁OSPAR	-10.2472
▁Phase	-10.2472
▁Dennoch	-10.2472
▁promotion	-10.2472
▁Lesung	-10.2472
▁competitiveness	-10.2472
▁cities	-10.2473
▁vorzulegen	-10.2473
Geschäftsordnung	-10.2474
▁bietet	-10.2474
▁immigration	-10.2477
▁excessive	-10.2477
▁Paritätische	-10.2477
capable	-10.2478
▁Normen	-10.2479
▁PPE	-10.2479
▁Liberal	-10.2479
▁Märkte	-10.2481
▁adoption	-10.2482
▁subjects	-10.2484
▁behandeln	-10.2485
▁recognised	-10.2491
▁managed	-10.2492
Parliament	-10.2492
▁erklären	-10.2495
▁gefährlich	-10.2497
▁scale	-10.2498
ur	-10.2508
▁Minderheiten	-10.2512
side	-10.2524
▁opening	-10.2529
▁bringt	-10.2531
▁Redner	-10.2531
ant	-10.2539
▁Reg	-10.2549
igen	-10.2551
gestern	-10.2574
▁zentrale	-10.2589
▁ability	-10.2591
▁commitments	-10.2591
▁dis	-10.261
▁achten	-10.261
▁code	-10.2628
eines	-10.2628
▁Afrika	-10.2629
▁falls	-10.2629
▁fallen	-10.2635
▁Hoffnung	-10.2654
▁applicant	-10.2656
▁highlight	-10.2675
▁assure	-10.2683
▁Nutzen	-10.2685
▁name	-10.2687
▁unmittelbar	-10.27
▁transfer	-10.2704
▁German	-10.2705
▁Allerdings	-10.271
▁Cederschiöld	-10.271
▁Effizienz	-10.271
▁Berücksichtig	-10.271
▁phase	-10.271
▁Why	-10.2713
▁Milliarden	-10.2717
▁organised	-10.2718
▁naturally	-10.2719
▁Minutes	-10.272
▁efficiency	-10.2725
▁covered	-10.2737
▁verweisen	-10.274
▁bekommen	-10.2742
▁aktiv	-10.2748
▁.	-10.2748
▁Bemerkungen	-10.2753
▁Flexibilität	-10.2753
rely	-10.277
▁Z	-10.2782
ready	-10.2792
▁Forderungen	-10.2807
lichen	-10.2809
▁intends	-10.2815
▁co	-10.282
▁schwierigen	-10.2825
▁investments	-10.2826
▁16	-10.2831
▁bilden	-10.2836
▁Priorität	-10.2853
▁Will	-10.2871
enfalls	-10.2875
▁Langen	-10.2901
▁round	-10.2902
▁convention	-10.2903
▁Höhe	-10.2903
▁nahe	-10.2907
▁manufacturer	-10.291
▁Resolution	-10.2911
richtlinie	-10.2913
▁Den	-10.2917
▁wor	-10.2921
▁Lösungen	-10.2924
▁richtige	-10.2933
zehn	-10.2941
initiative	-10.2943
▁wrong	-10.2947
▁wonder	-10.2949
▁complex	-10.2953
▁Entlastung	-10.2953
▁OTC	-10.2954
▁Ebenso	-10.2954
▁Engagement	-10.2954
▁Randlage	-10.2954
▁teilweise	-10.2954
▁expenditure	-10.2954
▁climate	-10.2954
▁operators	-10.2955
▁Warum	-10.2955
▁supply	-10.2955
▁committees	-10.2956
▁entstehen	-10.2957
▁Behandlung	-10.2957
▁happy	-10.2958
▁education	-10.2958
▁May	-10.2959
▁mutual	-10.2959
fragen	-10.2965
▁studies	-10.2966
▁forget	-10.2966
▁competitive	-10.2967
▁Aktivitäten	-10.2968
maßen	-10.297
▁immigrants	-10.2971
▁thousands	-10.2973
ers	-10.2975
▁produced	-10.2975
orld	-10.2977
▁eingeführt	-10.2997
▁Kritik	-10.2998
▁bedarf	-10.2999
▁klare	-10.3001
▁Fahrzeuge	-10.3005
▁elements	-10.3005
▁beziehen	-10.3013
▁Schluß	-10.3013
▁side	-10.3014
balanced	-10.3016
▁higher	-10.3017
heit	-10.3018
▁nie	-10.3018
▁offen	-10.3029
▁unternommen	-10.3037
▁anderem	-10.3038
▁zuständigen	-10.3039
▁Wer	-10.3044
▁related	-10.305
▁außerordentlich	-10.3051
▁met	-10.3076
▁weiterer	-10.3089
▁considerabl	-10.3101
▁Dienste	-10.3106
▁element	-10.3114
▁nationale	-10.3122
▁verabschiedet	-10.3123
▁Insel	-10.3131
▁Stoffe	-10.3137
ie	-10.3138
▁timetable	-10.3138
▁wenigen	-10.3143
▁succeed	-10.3146
▁Regulation	-10.3146
▁einzigen	-10.3148
▁degree	-10.3149
▁erinnert	-10.3153
▁Beweis	-10.3156
▁Umweltschutz	-10.3162
▁waters	-10.3172
▁betont	-10.3175
▁Instrumente	-10.3184
▁ländliche	-10.3193
▁übertragen	-10.3193
▁whom	-10.3196
▁press	-10.3202
▁frage	-10.3203
▁AIDS	-10.3204
▁FPÖ	-10.3204
▁Rassismus	-10.3204
▁aufmerksam	-10.3204
▁credibility	-10.3204
▁Volkspartei	-10.3204
▁verleihen	-10.3204
▁letztendlich	-10.3204
▁etc	-10.3204
▁treaties	-10.3204
▁Corrie	-10.3204
▁version	-10.3205
sized	-10.3205
▁Begriff	-10.3205
▁bezieht	-10.3207
▁Verlauf	-10.3207
▁ISA	-10.3207
▁introduction	-10.3208
▁einbezogen	-10.3208
▁beschränken	-10.321
▁tackle	-10.321
▁Mediterranean	-10.3212
▁acceptable	-10.3213
▁neighbour	-10.3216
▁strongly	-10.3217
▁consistent	-10.322
▁impose	-10.322
▁Grünen	-10.3221
▁Anpassung	-10.3225
▁reduced	-10.3229
▁jüngsten	-10.323
▁Greens	-10.323
▁Dann	-10.3231
▁exercise	-10.3235
▁defined	-10.3236
▁stocks	-10.3237
▁Gedanken	-10.3238
▁britische	-10.3239
▁occasions	-10.3242
▁Neu	-10.3243
▁drawing	-10.3248
▁eingeleitet	-10.3256
satz	-10.3259
▁Mir	-10.3263
▁keiner	-10.3277
▁Liberalen	-10.3278
▁According	-10.3279
▁zufolge	-10.3288
▁bald	-10.3293
▁freien	-10.3296
▁lang	-10.3299
▁Willen	-10.3308
▁spanische	-10.3311
▁zehn	-10.3316
▁Ereignisse	-10.3319
▁Ko	-10.3321
▁legen	-10.3333
▁Informations	-10.3334
▁Chance	-10.3349
▁verschiedene	-10.3365
▁concentrate	-10.3367
▁Am	-10.3368
▁dürfte	-10.3379
▁betreffen	-10.3386
▁Gleichgewicht	-10.3405
▁run	-10.3407
▁Socialist	-10.3409
▁Bank	-10.341
▁denken	-10.3412
ität	-10.3415
▁praktisch	-10.3419
▁inform	-10.3419
▁member	-10.3421
▁Außen	-10.3434
▁controls	-10.3451
▁Verhältnis	-10.3457
▁Florenz	-10.346
▁Milosevic	-10.346
▁commercial	-10.346
▁nevertheless	-10.346
▁nonetheless	-10.346
▁xenophobia	-10.346
▁Übereinstimmung	-10.346
▁Byrne	-10.346
▁Unfortunately	-10.346
▁Moreover	-10.346
▁plenary	-10.346
▁evidence	-10.346
▁Wales	-10.346
▁harmonisation	-10.346
▁truly	-10.346
▁einverstanden	-10.3461
▁abgeschlossen	-10.3461
▁dagegen	-10.3461
▁Schäden	-10.3462
▁vorschlagen	-10.3464
▁strict	-10.3464
▁taxation	-10.3465
hilfe	-10.3465
▁appropriations	-10.3466
▁feedingstuffs	-10.3466
K	-10.3469
▁Kollegin	-10.347
▁comply	-10.347
▁govern	-10.3472
▁increasingly	-10.3474
▁effectiveness	-10.3475
▁facing	-10.3476
▁anwesend	-10.3479
▁MEPs	-10.3485
▁obtain	-10.3486
▁eng	-10.3491
▁Kooperation	-10.3492
▁link	-10.3493
▁manage	-10.3495
▁handeln	-10.3497
▁Can	-10.3497
▁Dem	-10.3498
fter	-10.3508
▁Socialists	-10.3513
▁Teilen	-10.352
▁Friedens	-10.3522
▁Voraussetzungen	-10.3522
▁Such	-10.353
▁26	-10.3535
▁Legal	-10.3536
▁reden	-10.3537
▁interesting	-10.3539
▁100	-10.3547
▁Raums	-10.355
▁rechtliche	-10.3557
▁Gruppen	-10.3561
nt	-10.3569
out	-10.357
▁Auto	-10.3574
▁größten	-10.3576
▁Einzel	-10.3582
▁Sorgen	-10.3585
verfahren	-10.3596
%	-10.3602
▁durchzuführen	-10.3603
▁Rück	-10.3607
▁übrigens	-10.3607
▁tätig	-10.3615
▁angemessen	-10.3625
▁ernst	-10.3629
▁spezifische	-10.3636
▁Verwaltungs	-10.3637
▁Mitarbeiter	-10.3638
▁wirksame	-10.3652
00)	-10.3656
▁Anfragen	-10.3659
ite	-10.3662
▁Deutschland	-10.3665
▁border	-10.3667
▁obligation	-10.367
▁gefördert	-10.3675
▁Systems	-10.3691
▁illegal	-10.3693
▁Wahl	-10.3697
▁frei	-10.3702
▁income	-10.3706
▁Ic	-10.3707
▁visit	-10.3709
▁constructive	-10.3715
▁Akteure	-10.3716
▁Souveränität	-10.3723
▁Jetzt	-10.3723
▁Juni	-10.3723
▁Anliegen	-10.3723
▁restructuring	-10.3724
▁impression	-10.3724
▁June	-10.3724
▁impossible	-10.3726
DE	-10.3727
▁Schengen	-10.3727
▁racism	-10.3728
▁Sanktionen	-10.3728
▁minority	-10.3728
▁North	-10.3728
▁Vorhaben	-10.3728
▁neben	-10.3729
▁Erwartungen	-10.373
▁demonstrated	-10.3733
▁Gewähr	-10.3733
▁Ausgaben	-10.3733
▁detailed	-10.3734
▁Anspruch	-10.3742
Die	-10.3744
▁mechanisms	-10.3747
▁herzlich	-10.3751
▁emphasis	-10.3752
▁card	-10.3752
▁Strukturen	-10.3753
▁generally	-10.3754
▁U	-10.376
▁gerne	-10.3762
▁organisation	-10.3764
▁Gesamt	-10.3771
▁define	-10.3774
▁notwendige	-10.3784
▁einig	-10.3793
assen	-10.3795
▁plant	-10.3802
▁ging	-10.3805
▁pursu	-10.3807
▁beschäftigen	-10.381
▁insof	-10.3813
▁endgültige	-10.3823
▁...	-10.3834
io	-10.3835
▁Wahlen	-10.384
▁Diskussionen	-10.3843
▁gegenwärtige	-10.3852
▁länger	-10.3862
▁welcher	-10.3863
▁Stellen	-10.3863
▁komme	-10.3866
▁vollständig	-10.3872
für	-10.3876
▁examples	-10.3891
▁anderes	-10.3895
▁near	-10.3916
▁Mitglied	-10.3917
▁Beschlüsse	-10.3922
▁clean	-10.3927
svorschriften	-10.3932
▁fehlt	-10.3934
▁candidate	-10.3937
▁renewable	-10.3938
▁infrastructure	-10.3943
▁bevor	-10.3948
sausschuß	-10.3948
▁condemn	-10.3957
▁erzielt	-10.3992
▁vermeiden	-10.3993
▁sovereignty	-10.3994
▁Mitrovica	-10.3994
▁eligible	-10.3994
▁floor	-10.3994
▁steel	-10.3994
▁latter	-10.3994
▁Summit	-10.3994
▁coherent	-10.3994
▁Ausarbeitung	-10.3994
▁spent	-10.3996
▁allocated	-10.3996
▁reply	-10.3996
▁treatment	-10.3997
▁Dafür	-10.4
▁industrial	-10.4
▁opposed	-10.4001
▁age	-10.4003
▁Beispiele	-10.4006
▁Verständnis	-10.4007
▁ahead	-10.4012
▁arguments	-10.4019
▁Binnenmarktes	-10.402
▁erfahren	-10.4026
halten	-10.4029
▁Koch	-10.4032
▁Analyse	-10.4039
▁warten	-10.4039
▁bedeuten	-10.404
▁Bezug	-10.4041
0	-10.4046
at	-10.4057
▁Sektoren	-10.4058
▁betroffene	-10.4061
▁Einwanderung	-10.4072
▁kulturellen	-10.4073
▁Are	-10.4076
▁wants	-10.4079
▁dritte	-10.4099
life	-10.4105
▁EC	-10.4106
▁definition	-10.4113
▁Fundament	-10.412
recht	-10.4128
▁o	-10.4136
▁unterstütze	-10.4142
either	-10.4152
it	-10.4154
▁weitgehend	-10.416
▁Serbia	-10.4168
▁beschränkt	-10.417
▁Sprache	-10.4179
▁fail	-10.4179
leichzeitig	-10.4185
▁Ve	-10.4205
▁burden	-10.4216
▁death	-10.4218
▁Zusammenhalt	-10.4218
▁Beratung	-10.4218
▁target	-10.4218
▁Gipfel	-10.4222
▁Botschaft	-10.4226
▁Charakter	-10.423
▁talks	-10.4231
▁goal	-10.4233
ör	-10.424
▁month	-10.4241
▁Selbst	-10.4253
▁Berichte	-10.426
▁außer	-10.4269
▁Wallström	-10.4271
▁Fisheries	-10.4271
▁Ausgrenzung	-10.4271
▁minorities	-10.4271
▁elsewhere	-10.4271
▁otherwise	-10.4271
▁violence	-10.4271
▁monetary	-10.4272
▁proposing	-10.4275
▁Gewässer	-10.4277
▁technology	-10.4281
▁Vorstellung	-10.4282
▁conciliation	-10.4285
setzung	-10.4285
▁Haupt	-10.429
▁wenigsten	-10.4292
▁erarbeitet	-10.4292
▁enterprises	-10.4294
▁transition	-10.4306
▁Volk	-10.4306
▁erwähnen	-10.4316
▁Personal	-10.4325
▁sources	-10.4336
▁break	-10.4347
▁Zustand	-10.4347
▁prices	-10.4359
▁2000.	-10.4374
▁peoples	-10.4375
▁19	-10.4377
▁Handels	-10.438
rlei	-10.438
▁sent	-10.4386
il	-10.4395
▁vernünftige	-10.4395
▁read	-10.4395
▁told	-10.4409
Dienstleistungen	-10.4411
▁Institution	-10.4414
▁groß	-10.4419
▁willing	-10.4431
▁sinnvoll	-10.4431
▁pays	-10.4432
▁sichern	-10.4436
▁Arbeits	-10.4448
▁Tagen	-10.4449
▁31	-10.4455
▁fulfil	-10.4473
▁zuständig	-10.4476
▁vorliegende	-10.4478
▁design	-10.448
▁Kern	-10.4485
und	-10.4492
▁Representative	-10.4495
▁alternative	-10.4506
▁firm	-10.4507
ian	-10.4514
▁Sozial	-10.4517
▁conduct	-10.4522
▁proceed	-10.4532
▁union	-10.4533
▁ausgewogene	-10.4536
▁resource	-10.4539
▁influence	-10.4549
▁ausgehen	-10.4551
▁Stadt	-10.4554
chen	-10.4556
▁Dänemark	-10.4557
▁Gerechtigkeit	-10.4557
▁Jonckheer	-10.4557
▁Kingdom	-10.4557
▁grateful	-10.4557
▁heritage	-10.4557
▁recognition	-10.4557
▁Wiederaufbau	-10.4557
▁exclusion	-10.4557
▁American	-10.4557
▁series	-10.4558
▁economies	-10.4558
▁aufgefordert	-10.4558
▁Vorlage	-10.4559
▁bereitgestellt	-10.456
▁erzielen	-10.4561
▁nachdrücklich	-10.4562
▁Mittelpunkt	-10.4562
▁came	-10.4563
▁aussprechen	-10.4564
▁passed	-10.4564
▁personally	-10.4565
▁dennoch	-10.4573
▁actual	-10.4573
▁requested	-10.4578
▁mag	-10.4579
▁Genf	-10.4586
CO	-10.459
▁ban	-10.4594
▁finde	-10.4594
▁nachdem	-10.4596
▁Fortschritt	-10.4597
▁übernommen	-10.4597
▁Finanzkontrolle	-10.4601
▁zugrunde	-10.4601
▁nations	-10.4604
▁sides	-10.4613
▁andererseits	-10.4618
▁limits	-10.4632
▁bestimmt	-10.4633
▁Revision	-10.4645
▁solcher	-10.4663
▁schützen	-10.4665
▁represents	-10.4676
▁umzusetzen	-10.4677
▁Einkla	-10.4688
volving	-10.4689
▁früher	-10.4693
pointed	-10.472
▁Gleich	-10.4721
).	-10.4725
▁glauben	-10.4728
▁17	-10.4733
▁heraus	-10.4736
▁24	-10.4736
▁Cuba	-10.4753
▁Democrat	-10.4755
▁spreche	-10.477
▁campaign	-10.4773
▁Abkommens	-10.4775
richterstatterin	-10.4776
▁Spiel	-10.4777
▁Vorgehen	-10.479
▁Recycling	-10.4793
▁Griechenland	-10.4796
▁reaction	-10.4796
▁Bemerkung	-10.4798
▁association	-10.4798
▁criticism	-10.4799
▁claim	-10.4802
▁35	-10.4803
▁regime	-10.4805
▁knows	-10.4811
▁monitor	-10.4818
▁Frist	-10.482
▁mov	-10.482
▁table	-10.4826
▁Annäherung	-10.4832
▁Ja	-10.4833
▁eindeutige	-10.4834
▁gelungen	-10.4836
▁Arbeitsmarkt	-10.4837
▁vorgeschlagene	-10.4839
▁deliver	-10.4847
▁Allianz	-10.4851
▁Blick	-10.4851
▁Prosecutor	-10.4851
▁Denmark	-10.4851
▁built	-10.4851
▁hinzufügen	-10.4851
▁bemüht	-10.4851
▁passiert	-10.4852
▁funktioniert	-10.4852
▁gewährleistet	-10.4852
▁Sozialpolitik	-10.4852
▁delighted	-10.4853
ón	-10.4854
▁Bis	-10.4854
▁counterfeiting	-10.4854
▁verteidigen	-10.4857
▁briefly	-10.4857
▁verstanden	-10.4858
▁Waffen	-10.4858
▁suggested	-10.4858
▁angeht	-10.486
▁prepar	-10.486
▁linked	-10.4861
▁exclusive	-10.4862
▁befaßt	-10.4863
▁Herzen	-10.4863
▁Erhalt	-10.4863
▁anyone	-10.4865
SV	-10.4866
▁constitute	-10.4867
▁fällt	-10.4871
▁amerikanische	-10.4873
▁betrachten	-10.4877
▁General	-10.4878
▁networks	-10.4879
▁Only	-10.4882
▁Partner	-10.4885
▁cooperate	-10.4887
▁Quoten	-10.4888
bereich	-10.4889
▁Papier	-10.4889
▁added	-10.489
▁materials	-10.4891
▁abschließend	-10.4903
▁modern	-10.4904
▁stimmt	-10.4905
▁goals	-10.4914
▁Zweck	-10.4915
durch	-10.4917
▁undertaken	-10.4921
▁rechtlich	-10.4934
ability	-10.4943
▁kleine	-10.495
▁ins	-10.495
▁understanding	-10.495
erstatterin	-10.4952
▁operate	-10.4956
▁größer	-10.4966
▁wanted	-10.4967
auf	-10.4978
▁unterzeichnet	-10.4979
▁diesbezüglich	-10.4986
▁Vergleich	-10.4992
▁worked	-10.4992
▁neues	-10.5002
ist	-10.5005
▁21	-10.501
▁facilitate	-10.5034
▁calls	-10.5038
▁volle	-10.5042
▁Liste	-10.5048
▁besonderen	-10.5052
▁zugelassen	-10.5054
system	-10.5056
ierungskonferenz	-10.5069
▁nationaler	-10.507
▁Fälle	-10.5076
▁rest	-10.5078
▁Greek	-10.5088
▁disease	-10.5088
▁Hinweis	-10.509
▁finance	-10.5091
ely	-10.5095
▁ernsthaft	-10.5099
▁Verletzung	-10.5099
▁Budget	-10.51
▁Königreich	-10.51
▁competence	-10.51
▁Einrichtung	-10.5102
▁expression	-10.5102
▁relativ	-10.5103
▁Palestinian	-10.5105
▁Krise	-10.5108
ful	-10.5114
▁geltende	-10.5123
▁spielt	-10.5128
▁evening	-10.513
▁Vertretern	-10.5135
iert	-10.5136
▁prior	-10.515
▁realise	-10.5151
▁genuine	-10.5152
▁resolve	-10.5153
▁Geneva	-10.5154
▁Maastricht	-10.5154
▁Stenzel	-10.5154
▁absence	-10.5154
▁Glaubwürdigkeit	-10.5154
▁geprüft	-10.5154
▁reagieren	-10.5154
▁Secretary	-10.5154
▁Überprüfung	-10.5154
▁conservation	-10.5154
NS	-10.5154
▁Funktionieren	-10.5154
▁monopoly	-10.5154
▁niemals	-10.5154
▁transnational	-10.5155
▁Costa	-10.5155
▁Havel	-10.5155
▁revision	-10.5155
▁alcohol	-10.5155
▁Mitentscheidung	-10.5157
▁highest	-10.5157
▁Hintergrund	-10.5158
▁industries	-10.5159
▁Danish	-10.516
▁verstärken	-10.516
▁jetzige	-10.5161
▁informiert	-10.5163
▁via	-10.5163
▁failed	-10.5164
▁Rechnung	-10.5164
▁highlighted	-10.5165
▁bieten	-10.5171
▁äußern	-10.5171
▁remarks	-10.5172
▁bad	-10.5175
▁stärkere	-10.5176
▁formal	-10.5177
▁versichern	-10.5177
▁finanziell	-10.5178
▁gender	-10.5179
▁leaders	-10.5182
▁Projekten	-10.5182
smöglichkeiten	-10.5185
▁function	-10.5186
▁hält	-10.52
▁reinforce	-10.5208
▁seien	-10.5214
▁legally	-10.5222
▁34	-10.5226
▁Di	-10.5235
▁factors	-10.5236
▁Systeme	-10.5239
▁intentions	-10.5249
▁person	-10.5253
▁happens	-10.5254
▁Familien	-10.5263
▁mission	-10.5264
▁Here	-10.5276
▁vergangen	-10.5292
▁conflicts	-10.5305
pite	-10.5319
▁stattfinden	-10.5325
▁allzu	-10.5355
▁Bereits	-10.5362
▁lose	-10.5364
zahl	-10.5369
▁Chinese	-10.5376
▁werte	-10.5376
▁Arbeitsgruppe	-10.5382
▁Flüchtlinge	-10.5394
nach	-10.5399
▁New	-10.54
▁reflect	-10.5403
▁demonstrate	-10.5405
▁erheblich	-10.5405
▁failure	-10.541
▁recommendation	-10.5414
▁kam	-10.5419
▁27	-10.5419
▁lautet	-10.5427
▁source	-10.5429
▁innere	-10.5433
▁institutionelle	-10.544
▁Schaden	-10.5448
▁hands	-10.5452
▁appreciate	-10.5463
▁niemand	-10.5465
▁See	-10.5466
▁zuletzt	-10.5467
▁hervorgehoben	-10.5467
▁permanent	-10.5467
▁Turkish	-10.5467
▁Erhöhung	-10.5467
▁planned	-10.5467
▁erhöhen	-10.5467
▁beigetragen	-10.5468
▁Anzahl	-10.5468
▁Directorate	-10.5468
▁excluded	-10.5469
▁erfüllt	-10.547
▁certainty	-10.547
▁overcome	-10.5472
▁trägt	-10.5472
▁daraus	-10.5472
▁ausgesprochen	-10.5472
▁Friedensprozeß	-10.5472
▁Wasserpolitik	-10.5473
▁Fehler	-10.5473
▁Pläne	-10.5474
▁begrüßt	-10.5474
▁verlangen	-10.5475
▁proof	-10.5475
PT	-10.5475
▁applicable	-10.5476
▁Internal	-10.5478
▁proceedings	-10.5478
▁equally	-10.5482
▁vessels	-10.5483
▁resolved	-10.5485
▁bestätigen	-10.5485
▁amended	-10.5486
▁gewisser	-10.5498
▁figures	-10.55
▁Bestandteil	-10.5508
▁Polizei	-10.5509
▁targets	-10.5527
▁jemand	-10.5528
▁gewählte	-10.553
▁Funktion	-10.5531
▁taxes	-10.5538
▁­	-10.5542
▁worse	-10.5543
▁applying	-10.5547
▁treten	-10.5555
▁Programmen	-10.5557
▁acht	-10.5559
▁geändert	-10.5562
▁Organisationen	-10.5564
▁politically	-10.5568
▁worth	-10.5571
▁teilen	-10.5571
▁falsch	-10.5575
▁placed	-10.558
▁Genehmigung	-10.5582
▁geeignete	-10.5592
nd	-10.5604
▁benefits	-10.5614
Steuer	-10.5618
▁verstärkt	-10.5622
▁deutsche	-10.5627
▁contributions	-10.5632
▁künftigen	-10.5634
sentwurf	-10.5646
▁types	-10.5648
▁Verschmutzung	-10.5649
tion	-10.5655
▁90	-10.5675
▁bezeichnet	-10.5681
▁Formen	-10.5682
▁Mehr	-10.5683
ry	-10.5688
▁institution	-10.5691
▁lokale	-10.5694
▁Punkten	-10.5697
leistung	-10.5705
▁wollte	-10.5712
▁anschließen	-10.5718
▁codecision	-10.5721
▁historic	-10.5723
▁Gespräche	-10.5733
▁parliament	-10.5734
▁Faktor	-10.5736
▁erfordert	-10.574
▁Roma	-10.5741
mal	-10.5742
selben	-10.5742
▁record	-10.5746
▁mögliche	-10.5746
▁Jugoslawien	-10.5746
▁sofort	-10.5749
▁quota	-10.5762
▁wenige	-10.5772
▁double	-10.5776
▁bedroht	-10.5778
▁israelische	-10.5779
▁grenzüber	-10.578
▁brief	-10.5783
▁examine	-10.5785
▁Konzentration	-10.5788
▁Basis	-10.5789
▁McCarthy	-10.5789
▁advice	-10.5789
▁Alliance	-10.5789
▁urgency	-10.5789
▁mehrfach	-10.5789
▁Because	-10.5789
▁possibly	-10.579
▁monopolies	-10.579
▁Gegenstand	-10.579
▁Beiträge	-10.579
▁existence	-10.579
▁justified	-10.5791
▁somewhat	-10.5791
▁Agriculture	-10.5791
▁damals	-10.5792
▁sign	-10.5792
▁Konvergenz	-10.5793
▁Lastly	-10.5793
▁angebracht	-10.5794
▁media	-10.5794
▁Risiken	-10.5794
▁supplement	-10.5795
▁Free	-10.5795
▁collection	-10.5795
▁distribution	-10.5797
▁centre	-10.5799
▁South	-10.58
▁Wege	-10.58
▁ansprechen	-10.5802
▁wealth	-10.5803
▁mandate	-10.5803
▁Berlin	-10.5805
▁Mann	-10.5807
▁collective	-10.5811
▁advance	-10.5813
▁Women	-10.5817
▁französische	-10.5817
skörperschaften	-10.582
▁vereinbart	-10.5823
governmental	-10.5824
▁familiar	-10.5825
▁zahlen	-10.5831
▁relative	-10.5833
▁holding	-10.5834
▁schemes	-10.5837
▁Menge	-10.5838
▁massive	-10.584
▁Einrichtungen	-10.5847
ally	-10.5847
▁Anlagen	-10.5848
▁obligations	-10.5855
▁Männern	-10.5862
▁ausgezeichneten	-10.5867
▁klaren	-10.5869
▁Roth	-10.587
▁langfristig	-10.5878
Rechtssicherheit	-10.5878
Abkommen	-10.5898
▁preventing	-10.5902
▁causes	-10.5915
▁+	-10.5929
▁shows	-10.5945
▁exists	-10.5946
▁individuals	-10.5954
▁Politiker	-10.5965
▁territorial	-10.597
▁rein	-10.5987
▁debates	-10.5997
▁Mitgliedern	-10.5997
▁kulturelle	-10.6004
▁associate	-10.6019
▁vorhanden	-10.6028
▁eingereicht	-10.6032
2	-10.6033
▁Regierungs	-10.6041
took	-10.6047
▁1,	-10.6049
▁withdraw	-10.6056
▁Agreement	-10.6063
▁advantage	-10.6068
▁allgemeine	-10.6071
▁undertake	-10.6072
▁condition	-10.6073
▁becomes	-10.6077
▁seven	-10.6082
▁Gra	-10.6086
▁Entwicklungen	-10.6086
▁Kriminalität	-10.6088
▁anerkannt	-10.6096
▁28	-10.6113
▁verloren	-10.6119
▁precise	-10.612
Fischereipolitik	-10.6121
▁continent	-10.6122
▁Decourrière	-10.6123
▁Dineh	-10.6123
▁jugoslawische	-10.6123
▁zwangsläufig	-10.6123
▁PHARE	-10.6123
▁Employment	-10.6123
▁Gerade	-10.6123
▁Scotland	-10.6123
▁1992	-10.6123
▁surround	-10.6123
▁Left	-10.6123
▁hoffentlich	-10.6123
▁Nachdruck	-10.6123
▁numerous	-10.6123
▁prosperity	-10.6123
▁sicherzustellen	-10.6123
▁corruption	-10.6123
▁encouraging	-10.6123
▁compensation	-10.6123
▁easier	-10.6123
▁Syrien	-10.6123
▁yourself	-10.6123
▁consensus	-10.6124
▁average	-10.6124
▁genauso	-10.6124
▁Auswahl	-10.6124
▁strategies	-10.6124
▁recovery	-10.6124
▁beschäftigt	-10.6124
▁surface	-10.6125
▁Freizügigkeit	-10.6125
▁perfectly	-10.6126
▁OGAW	-10.6127
▁Angaben	-10.6127
▁schafft	-10.613
▁erhält	-10.6132
▁Infrastruktur	-10.6132
▁incorporated	-10.6132
▁unterstreichen	-10.6133
▁convenience	-10.6133
▁gezogen	-10.6133
▁modernisation	-10.6134
▁vorstellen	-10.6134
▁genutzt	-10.6136
▁erarbeiten	-10.6136
▁growing	-10.6137
▁derivatives	-10.6138
▁Volkes	-10.6138
▁beide	-10.614
▁45	-10.614
▁unabhängige	-10.614
▁annehmen	-10.6141
▁enter	-10.6142
▁Leistungen	-10.6146
▁negotiate	-10.6146
▁package	-10.6148
▁head	-10.6149
Programm	-10.6151
▁definiert	-10.6151
▁hours	-10.6151
▁aimed	-10.6155
▁farming	-10.6157
▁restrict	-10.6157
▁Laufe	-10.6158
▁Marktes	-10.6159
▁verbessert	-10.616
▁jener	-10.6161
▁guaranteed	-10.6165
erung	-10.6167
▁courts	-10.6168
▁lies	-10.6172
▁Fischer	-10.6183
▁wünschen	-10.6186
▁release	-10.6188
▁strafrechtliche	-10.6189
▁Sicherung	-10.6194
▁partly	-10.6197
▁angemessene	-10.6198
▁jährlich	-10.6199
▁vernünftig	-10.6201
schlägt	-10.6204
▁Groß	-10.623
▁Kan	-10.6231
▁acting	-10.6234
▁Vereinbarungen	-10.6236
▁verändert	-10.6237
▁c	-10.6239
▁seines	-10.624
▁tut	-10.6242
▁Mi	-10.6252
economic	-10.6265
▁Einheit	-10.6267
▁considerations	-10.6268
▁generate	-10.6268
▁helping	-10.6274
ausschusses	-10.6275
▁sustain	-10.6288
▁follows	-10.629
▁Mai	-10.6298
Generaldirektion	-10.6299
(	-10.6308
▁entgegen	-10.6328
▁ergeben	-10.6335
▁immense	-10.6344
▁Österreichs	-10.6351
▁Daru	-10.6369
▁200	-10.6371
▁Menschenrecht	-10.6373
▁Regi	-10.6377
▁spoke	-10.6387
▁verstehe	-10.6389
▁ones	-10.6393
▁port	-10.6396
▁Zusatzstoffe	-10.6398
▁pension	-10.64
▁generell	-10.6402
▁Minderheit	-10.6408
▁zugu	-10.6408
▁occasion	-10.641
▁Zeitplan	-10.6411
▁Reaktion	-10.6413
▁animal	-10.6414
▁substance	-10.6414
▁section	-10.6415
▁gain	-10.642
▁aktive	-10.6421
▁evaluation	-10.6424
▁alten	-10.6425
▁speed	-10.6431
▁Market	-10.6437
8	-10.6444
▁Erreich	-10.6445
▁enorme	-10.6446
sbereich	-10.6449
▁wait	-10.6451
▁begrenzt	-10.6453
▁Brief	-10.6457
▁sole	-10.6461
▁radical	-10.6461
▁endorse	-10.6461
▁prefer	-10.6466
▁entsprechen	-10.6466
▁afternoon	-10.6467
▁hauptsächlich	-10.6467
▁ÖVP	-10.6467
▁Nichtregierungs	-10.6467
▁verlieren	-10.6467
▁Goodyear	-10.6467
▁1990	-10.6467
▁darunter	-10.6468
▁sicherstellen	-10.6468
▁beantworten	-10.6469
▁families	-10.6469
▁ergibt	-10.6469
▁Schmidt	-10.647
▁legitimate	-10.647
▁afford	-10.6471
▁Mindest	-10.6471
▁ärmsten	-10.6471
▁Bereitschaft	-10.6472
▁valid	-10.6473
▁introducing	-10.6473
nsten	-10.6475
▁Stand	-10.6476
▁rapidly	-10.6477
▁big	-10.6477
▁negotiating	-10.6477
▁couple	-10.6478
▁abend	-10.6478
▁erfordern	-10.6479
▁entirely	-10.6479
▁expectations	-10.648
▁verurteilen	-10.6481
▁richten	-10.6484
▁correspond	-10.6485
▁stärkste	-10.6487
▁parallel	-10.6487
▁zusätzliche	-10.6494
▁functioning	-10.6496
▁überall	-10.6497
▁spending	-10.6497
▁kennen	-10.6498
▁zero	-10.6503
▁bevorstehende	-10.6504
▁board	-10.6507
▁assess	-10.6509
▁willkommen	-10.6509
▁fine	-10.6513
▁1999.	-10.6516
▁deep	-10.6519
▁await	-10.652
▁protecting	-10.6522
▁ships	-10.6522
▁quotas	-10.6524
▁Roman	-10.6527
▁links	-10.6534
▁umfassend	-10.6536
▁regular	-10.6539
▁prepare	-10.6546
▁ethnische	-10.6551
▁Studien	-10.6552
▁enorm	-10.6555
▁Jahrhundert	-10.6556
▁Sta	-10.6568
▁betreffende	-10.6578
▁oral	-10.6588
▁amounts	-10.66
▁folgen	-10.6609
▁Arbeiten	-10.6611
▁uniform	-10.6613
▁erfolgreiche	-10.662
▁wiederholt	-10.6627
▁jenen	-10.6643
▁uneingeschränkt	-10.6647
year	-10.6647
Beifall	-10.6657
▁rich	-10.6662
D	-10.6667
▁95	-10.6668
mittel	-10.6675
▁tourist	-10.6678
▁Verbrechen	-10.6685
aximum	-10.669
lying	-10.6701
▁Einigung	-10.6704
▁gerichtet	-10.6717
▁suggest	-10.6731
▁erfolgt	-10.6732
▁pass	-10.6733
▁Element	-10.6736
▁Berichterstatt	-10.6736
▁historische	-10.6736
▁Rechten	-10.674
▁humanitäre	-10.6744
▁Güter	-10.6744
▁Männer	-10.6744
▁determine	-10.6749
▁examination	-10.6758
▁setzt	-10.6758
▁origin	-10.676
▁says	-10.6761
▁air	-10.6768
▁Definition	-10.6768
▁absolute	-10.6768
▁Straße	-10.6769
eren	-10.6769
▁perspective	-10.677
▁inspection	-10.677
▁scheme	-10.6772
▁requirement	-10.6772
▁difference	-10.6777
chmal	-10.6779
▁TSE	-10.678
sbedingungen	-10.6787
▁di	-10.6788
▁heading	-10.6792
▁22	-10.6801
▁suchen	-10.6808
▁Vorschlags	-10.6811
▁Städte	-10.6819
▁nationals	-10.6822
ß	-10.6824
Applause	-10.6824
Behrendt	-10.6824
▁Consumer	-10.6824
▁Instead	-10.6824
▁Liikanen	-10.6824
▁Netherlands	-10.6824
▁Straßburg	-10.6824
▁science	-10.6824
▁Volksgesundheit	-10.6825
▁compulsory	-10.6825
▁emergency	-10.6825
▁membership	-10.6825
▁Wissenschaftler	-10.6825
▁easily	-10.6825
▁occurred	-10.6825
▁marine	-10.6825
▁sympathy	-10.6825
▁2003	-10.6825
▁supervision	-10.6825
▁bestätigt	-10.6826
▁implications	-10.6826
▁Dutch	-10.6826
▁scrapie	-10.6826
▁obliged	-10.6827
▁eingehalten	-10.6827
▁Des	-10.6828
▁umfaßt	-10.6828
▁befindet	-10.6828
▁beteiligen	-10.6828
▁concentration	-10.6829
▁identify	-10.6829
▁distributed	-10.6829
▁Mechanismen	-10.683
▁mitteilen	-10.683
▁danach	-10.683
▁described	-10.683
▁verlangt	-10.6831
ssenschaftlichen	-10.6831
▁Regierungschefs	-10.6832
▁published	-10.6833
▁considerably	-10.6833
▁US	-10.6834
▁1993	-10.6834
▁qualified	-10.6836
▁binding	-10.6837
▁kurzem	-10.6839
▁vorhin	-10.6839
▁separate	-10.684
▁aufnehmen	-10.6842
▁schwierige	-10.6843
▁proved	-10.6844
▁irgendeine	-10.6845
▁Geist	-10.6846
▁Aktion	-10.6847
▁gezeigt	-10.6849
▁Wohlstand	-10.6852
▁depend	-10.6855
▁Mut	-10.6857
▁apart	-10.6858
▁Zielsetzungen	-10.6859
▁Staates	-10.686
▁mündliche	-10.6863
▁Selbstverständ	-10.6865
▁violations	-10.6866
▁seeking	-10.687
einzelstaatliche	-10.687
▁started	-10.6877
▁sozial	-10.688
▁solve	-10.6884
▁Lange	-10.6886
▁assume	-10.6892
▁Sei	-10.6892
▁2001	-10.6899
▁count	-10.6901
▁export	-10.6902
▁geboten	-10.6909
▁dargelegt	-10.691
▁respected	-10.6917
▁ökologischen	-10.6918
▁insist	-10.6927
▁zugleich	-10.6929
▁anders	-10.6931
iddle	-10.6931
ge	-10.6945
Initiative	-10.6945
wing	-10.6947
▁grenz	-10.6947
M	-10.6955
▁Gesetze	-10.6964
p	-10.6975
▁opinions	-10.6977
▁laws	-10.6983
▁aufzunehmen	-10.6984
▁kontrolliert	-10.6991
▁stands	-10.7
▁umfassenden	-10.7015
▁permit	-10.702
erungskonferenz	-10.7024
▁Verteidigungs	-10.7024
▁negativen	-10.7031
bald	-10.7038
▁Dingen	-10.7041
▁Modell	-10.7043
▁Maß	-10.7055
▁consist	-10.7061
▁Konzept	-10.7067
statt	-10.7072
tergovernmental	-10.7082
ismus	-10.7088
▁verdient	-10.709
mit	-10.7092
worthy	-10.7092
programm	-10.71
▁Miß	-10.71
▁multi	-10.7103
▁Idee	-10.7117
teilung	-10.7118
▁assist	-10.7123
los	-10.7126
▁citizen	-10.7145
▁declaration	-10.7146
▁court	-10.7146
▁trend	-10.7152
▁Fehlen	-10.7155
▁instance	-10.7159
▁Gelder	-10.7172
▁ca	-10.7174
ndererseits	-10.7175
▁substantial	-10.7188
▁recommend	-10.7189
▁vorliegen	-10.7191
▁ETA	-10.7195
▁elderly	-10.7195
▁erläutern	-10.7195
▁xenophobic	-10.7195
▁KMU	-10.7195
▁background	-10.7195
▁disposal	-10.7195
▁letztlich	-10.7195
▁reconstruction	-10.7195
▁Abbau	-10.7195
▁Organismen	-10.7196
▁verfügt	-10.7196
▁Finanzmittel	-10.7196
▁fishermen	-10.7197
▁informieren	-10.7197
▁bemühen	-10.7197
▁bewältigen	-10.7198
▁basically	-10.7198
▁durchführen	-10.7198
▁hence	-10.7198
▁übermitteln	-10.7198
▁spricht	-10.7198
▁announced	-10.7199
▁occupied	-10.72
▁Niveau	-10.72
▁written	-10.72
▁Hav	-10.7202
meinschaftlichen	-10.7202
▁transactions	-10.7202
▁firmly	-10.7203
▁accounts	-10.7204
▁treated	-10.7204
▁Beförderung	-10.7207
ste	-10.7208
▁rejected	-10.7209
gemeinschaftlich	-10.721
▁storms	-10.7212
▁ship	-10.7214
▁extended	-10.7214
▁gelöst	-10.7215
▁Sozialschutzes	-10.7215
▁topical	-10.7217
▁stressed	-10.722
▁gehalten	-10.7221
▁restor	-10.7227
▁core	-10.7228
▁stärken	-10.7228
fähigkeit	-10.7228
▁Konflikt	-10.7229
▁lower	-10.723
▁effiziente	-10.7233
▁Umständen	-10.7236
▁shared	-10.7239
▁grundsätzlich	-10.7244
▁praktische	-10.7255
▁Faktoren	-10.7257
el	-10.7257
lang	-10.7259
weise	-10.726
▁effektiv	-10.7266
Umstrukturierung	-10.7267
▁collect	-10.7269
ische	-10.7275
▁gewaltige	-10.7278
▁schließen	-10.728
▁Vertrages	-10.7284
efe	-10.7285
▁improvements	-10.7289
▁fordert	-10.7291
▁invest	-10.7292
▁geplant	-10.7292
▁inzwischen	-10.7301
▁confine	-10.7309
▁einzelne	-10.731
▁erhöht	-10.7313
schutz	-10.7315
▁beabsichtigt	-10.7317
▁Sozialdemokrat	-10.7318
hängt	-10.7325
▁21.	-10.7326
▁Bau	-10.7327
▁approximate	-10.7336
▁ausgezeichnete	-10.7338
▁vorgesehene	-10.7339
▁müßten	-10.7343
▁Uns	-10.7343
aß	-10.7346
▁practices	-10.7351
▁anzuwenden	-10.736
ttbewerbspolitik	-10.738
▁Standpunkte	-10.7391
▁lines	-10.7399
accession	-10.7411
▁Tage	-10.7417
▁Vorredner	-10.7418
cal	-10.7426
abkommen	-10.7429
▁endgültig	-10.7435
▁texts	-10.7442
4	-10.7444
▁Freiheiten	-10.7452
▁Bild	-10.7455
ial	-10.7455
▁Kapital	-10.7457
▁Meer	-10.7468
ty	-10.7474
▁finanziert	-10.7476
▁Austausch	-10.7481
▁Klima	-10.7483
barkeit	-10.7492
▁advocate	-10.7505
▁voice	-10.7506
▁news	-10.7512
▁Fassung	-10.7513
isation	-10.7518
▁Argumente	-10.7519
▁Serbien	-10.7523
▁sphere	-10.7526
▁Kontinent	-10.7527
▁accident	-10.7528
▁teile	-10.7533
▁Trotz	-10.7539
▁Meeres	-10.7539
▁Zusammen	-10.7548
etrifft	-10.755
▁clarify	-10.7553
▁erneuerbare	-10.7562
▁sub	-10.7562
rarbeitung	-10.7563
▁Futtermittel	-10.7574
▁peaceful	-10.7574
▁Böge	-10.7579
▁Bürokratie	-10.7579
▁Inkrafttreten	-10.7579
▁Scrapie	-10.7579
▁clarity	-10.7579
▁welfare	-10.7579
▁Stabilitätspakt	-10.758
▁gelingt	-10.758
▁disparities	-10.758
▁truth	-10.758
▁vertritt	-10.758
▁Pietro	-10.758
▁entitled	-10.758
▁extension	-10.758
▁scientists	-10.758
▁Anträge	-10.758
▁Another	-10.758
▁diversity	-10.758
▁Auditors	-10.7581
▁152	-10.7581
▁oftmals	-10.7582
▁widmen	-10.7582
▁700	-10.7582
▁trotzdem	-10.7584
▁verhindert	-10.7584
▁volume	-10.7584
▁Abfälle	-10.7584
▁gestaltet	-10.7584
▁investors	-10.7585
▁speaker	-10.7585
▁geographical	-10.7586
▁weapons	-10.7587
▁professional	-10.7588
▁Einwanderer	-10.7588
▁verwenden	-10.7589
gesellschaftlich	-10.7591
▁Strasbourg	-10.7591
▁Befugnisse	-10.7591
▁presentation	-10.7594
gestaltung	-10.7594
▁auftreten	-10.7595
▁loss	-10.7596
▁bekanntlich	-10.7596
▁confirmed	-10.7597
▁entschlossen	-10.7598
▁determination	-10.7598
▁Gemeinden	-10.7599
▁dank	-10.7599
▁Status	-10.7599
lage	-10.7599
▁Technologien	-10.76
▁vorrangig	-10.7601
oreign	-10.7603
▁donors	-10.7604
mals	-10.7604
▁financed	-10.7607
▁beraten	-10.7608
▁Anteil	-10.761
▁restricted	-10.7613
▁Leid	-10.7613
▁mindesten	-10.7615
▁indicated	-10.7617
▁schriftlich	-10.7621
▁Beamten	-10.7624
▁Garantien	-10.7634
▁feeling	-10.7642
▁Planung	-10.7642
▁Tagung	-10.7643
▁constitutes	-10.7648
▁waiting	-10.7649
▁differ	-10.7653
▁grundlegend	-10.7657
▁noted	-10.7663
▁Zuständigkeiten	-10.7674
▁Handeln	-10.7676
▁benötigt	-10.7681
▁rechtzeitig	-10.7681
▁früheren	-10.7685
▁prove	-10.7689
▁zukünftige	-10.7689
▁invite	-10.7692
▁hinweg	-10.7693
men	-10.7696
▁Gemeinsam	-10.77
▁genügend	-10.7703
▁offices	-10.7705
▁bedeutende	-10.7715
▁Gut	-10.7718
▁entwickelten	-10.7721
▁ten	-10.7746
▁zweitens	-10.7749
▁processes	-10.7763
▁zunehmende	-10.7786
▁issued	-10.7791
▁debated	-10.7794
▁weight	-10.7795
▁Verbesserungen	-10.7803
▁2,	-10.7817
▁konsequent	-10.7843
▁freuen	-10.7843
▁Su	-10.7855
▁bilateral	-10.7863
room	-10.7866
▁Staats	-10.7874
stern	-10.7878
▁Erzeugnisse	-10.7893
▁Ordnung	-10.7902
▁nehme	-10.7909
▁potentielle	-10.7911
▁attack	-10.7917
▁Schottland	-10.7918
▁National	-10.792
▁Sonder	-10.7922
▁Kuba	-10.7924
▁Nahe	-10.7924
▁Instanz	-10.7925
▁acknowledge	-10.7925
me	-10.7925
▁zunehmend	-10.7935
▁freedoms	-10.7942
▁kürzlich	-10.7946
▁material	-10.7946
▁stock	-10.7952
):	-10.796
▁facts	-10.7962
▁offenbar	-10.7964
▁sorgfältig	-10.7967
▁intervene	-10.7975
▁courage	-10.7978
▁Donnerstag	-10.7979
▁Freude	-10.7979
▁October	-10.7979
▁Poettering	-10.7979
▁Procedure	-10.7979
▁Tschetschenien	-10.7979
▁Vielfalt	-10.7979
▁picture	-10.7979
▁territories	-10.7979
▁clarification	-10.7979
▁NRO	-10.798
▁baskische	-10.798
▁Atlantic	-10.798
▁coalition	-10.798
▁Offenheit	-10.798
▁electronic	-10.798
▁erscheint	-10.798
▁Wissenschaft	-10.798
▁species	-10.798
▁Beachtung	-10.798
▁UK	-10.798
▁damaging	-10.7981
▁property	-10.7981
▁gebeten	-10.7981
▁heavy	-10.7981
▁vorliegt	-10.7982
▁treaty	-10.7982
▁finnische	-10.7983
▁solange	-10.7983
▁gesichert	-10.7984
▁Russian	-10.7984
▁fortsetzen	-10.7985
▁Ohne	-10.7985
▁bekämpfen	-10.7985
▁threatened	-10.7985
▁benötigen	-10.7986
▁erwiesen	-10.7986
▁changing	-10.7988
▁Journalisten	-10.799
▁gewiß	-10.799
▁Medien	-10.799
▁flag	-10.7991
▁economically	-10.7992
▁running	-10.7992
▁qualifizierte	-10.7992
▁Albanian	-10.7992
führung	-10.7996
▁Serben	-10.8
sabkommen	-10.8004
▁PSE	-10.8005
▁prospects	-10.8016
staaten	-10.8018
▁options	-10.8022
▁Postdienst	-10.8024
▁Vorsitzenden	-10.8025
▁persönliche	-10.803
▁Ent	-10.8031
▁herrscht	-10.8034
▁begonnen	-10.8034
▁vollkommen	-10.8036
▁Ausnahme	-10.8038
▁centres	-10.8044
hose	-10.8051
▁Christ	-10.8052
▁continued	-10.8056
▁changed	-10.8066
▁alte	-10.8073
▁gewährt	-10.8074
▁vorbereitet	-10.8077
▁Sollte	-10.8078
▁verursacht	-10.8082
▁Parlamente	-10.8085
▁Gerichte	-10.8088
▁manche	-10.8091
▁ursprüngliche	-10.8094
sländern	-10.8096
▁spät	-10.8096
▁Israelis	-10.8099
▁offers	-10.8099
employed	-10.8102
▁wirksam	-10.8108
▁finding	-10.8109
▁spend	-10.8115
▁whil	-10.8123
▁Positionen	-10.8126
▁reichen	-10.8139
▁mußten	-10.8145
trittskandidaten	-10.8147
▁Auftrag	-10.8147
▁Universaldienst	-10.8152
▁letzter	-10.8156
▁Monetar	-10.8161
igung	-10.8168
▁ausgerichtet	-10.8169
wegs	-10.8174
▁West	-10.8174
▁Besuch	-10.8184
▁respects	-10.8194
▁weist	-10.8199
gemeinschaft	-10.8203
▁höchste	-10.8205
ieren	-10.8207
▁meetings	-10.8212
▁fields	-10.8213
▁save	-10.8215
▁Gemeinschaften	-10.8216
▁acts	-10.8239
▁Mos	-10.8246
▁Control	-10.8255
▁unerläßlich	-10.8264
▁Syria	-10.8276
▁pure	-10.8278
▁hervorragende	-10.828
▁qu	-10.8282
ould	-10.8285
anforderungen	-10.8295
▁topic	-10.8311
▁unannehmbar	-10.8314
▁audit	-10.8331
▁gewählt	-10.8334
▁Korruption	-10.8335
▁admit	-10.8336
▁Feststellung	-10.8337
▁language	-10.8341
▁test	-10.8341
▁Freedom	-10.8342
▁ähnlich	-10.8343
▁preparation	-10.8344
ne	-10.8348
▁fehlende	-10.8349
ok	-10.835
▁millions	-10.8353
▁Gang	-10.8355
▁Europäer	-10.8356
▁palästinensisch	-10.836
▁nation	-10.8361
▁bildet	-10.8361
▁Angriff	-10.8364
getting	-10.8371
▁Inso	-10.8374
▁enjoy	-10.8392
tätigkeit	-10.8395
▁submit	-10.8395
▁Baringdorf	-10.8396
▁Chechnya	-10.8396
▁Danube	-10.8396
▁Frassoni	-10.8396
▁Rapkay	-10.8396
▁Schüssel	-10.8396
▁Toleranz	-10.8396
▁anbelangt	-10.8396
▁behaviour	-10.8396
▁bureaucracy	-10.8396
▁debattieren	-10.8396
▁gezwungen	-10.8396
▁significance	-10.8396
▁Ölpest	-10.8396
▁fifteen	-10.8396
▁russische	-10.8396
▁teilnehmen	-10.8396
▁opposition	-10.8396
▁Monday	-10.8396
▁Fragestunde	-10.8396
▁festzulegen	-10.8396
▁groundwater	-10.8396
▁Lebensqualität	-10.8396
▁Vice	-10.8396
▁beizutragen	-10.8397
▁Finland	-10.8397
▁Prinzipien	-10.8397
▁penalty	-10.8398
▁Aktionsprogramm	-10.8398
▁Bürgerinnen	-10.8398
▁identified	-10.8398
▁Umweltfragen	-10.8399
▁promised	-10.8399
▁Häl	-10.84
▁ausgesetzt	-10.8401
▁Wirkung	-10.8401
▁verabschieden	-10.8401
▁authorised	-10.8402
▁Common	-10.8402
▁UCITS	-10.8402
▁programming	-10.8402
▁suffered	-10.8402
▁competent	-10.8402
▁vast	-10.8403
▁debating	-10.8404
▁Augenblick	-10.8405
▁acquis	-10.8405
▁erleben	-10.8407
▁supposed	-10.8407
▁beendet	-10.8411
▁actively	-10.8412
▁Demokraten	-10.8413
▁politicians	-10.8416
▁fourth	-10.8417
▁Kohäsion	-10.8418
▁sufficiently	-10.8421
▁lokaler	-10.8423
▁erteilen	-10.8424
▁keines	-10.8425
▁quantitative	-10.8427
▁signal	-10.8428
▁zählen	-10.8429
▁observations	-10.8434
▁please	-10.8436
▁standard	-10.8441
▁höher	-10.8441
▁zuvor	-10.8443
hand	-10.8445
▁undertakings	-10.8448
▁ökologische	-10.8451
▁einerseits	-10.8455
▁vorgenommen	-10.8458
▁Jahrhunderts	-10.8461
▁Geber	-10.8468
▁oppose	-10.8473
▁feed	-10.8481
▁Ausnahmen	-10.8483
▁welcomed	-10.8484
cy	-10.8492
▁Swed	-10.8494
▁tool	-10.8496
▁details	-10.8502
▁paying	-10.8504
▁folgendes	-10.8507
▁vorhandene	-10.8516
ielleicht	-10.8521
▁match	-10.8524
▁bedauerlich	-10.8524
▁affects	-10.853
▁Rats	-10.854
▁counter	-10.8543
hancengleichheit	-10.8553
▁Zahlen	-10.8557
posed	-10.8561
▁l	-10.8567
▁Problems	-10.857
ring	-10.8577
▁contract	-10.8594
▁proposes	-10.8595
▁umfangreiche	-10.8595
▁votes	-10.8615
▁zivile	-10.8618
▁abgegeben	-10.8625
▁verstärkte	-10.8625
EC	-10.8628
▁formuliert	-10.8628
▁th	-10.8628
▁path	-10.8634
organisation	-10.8649
fte	-10.8654
▁vorangegangene	-10.8655
▁Like	-10.866
scale	-10.8664
▁Produkt	-10.8665
▁integriert	-10.8671
▁erweitert	-10.8674
ter	-10.8675
keeping	-10.8682
▁Richter	-10.8688
uch	-10.8704
▁ursprünglich	-10.8708
smitglieder	-10.8711
▁verurteilt	-10.8717
▁Aspekten	-10.8739
▁deutliche	-10.8739
▁unit	-10.8741
▁ent	-10.8748
▁War	-10.8748
▁Stunde	-10.8751
▁Debatten	-10.8753
▁Perspektive	-10.8757
▁pr	-10.8757
▁Amt	-10.8762
▁wünsche	-10.8765
▁Material	-10.8767
▁Erinnerung	-10.8772
▁civilian	-10.8776
▁undertaking	-10.8786
▁geringe	-10.8789
▁import	-10.8791
spolitiken	-10.8793
▁verteidigt	-10.8797
▁endeavour	-10.8804
▁kritisch	-10.8808
▁Aktionsplan	-10.8814
▁custom	-10.8817
▁Ansichten	-10.8818
▁Dauer	-10.8824
▁gefährdet	-10.8824
▁Kürz	-10.8825
▁inadequate	-10.8827
3	-10.8829
▁decisive	-10.883
▁ALTENER	-10.8831
▁SMEs	-10.8831
▁Thursday	-10.8831
▁jurisdiction	-10.8831
▁justitielle	-10.8831
▁schrittweise	-10.8831
▁tolerance	-10.8831
▁veranlaßt	-10.8831
▁whatsoever	-10.8831
▁Juli	-10.8831
▁identity	-10.8831
▁diplomatic	-10.8831
▁Mangel	-10.8831
▁inclusion	-10.8831
▁Cypriot	-10.8831
▁nachzudenken	-10.8831
▁Verbreitung	-10.8831
▁2020	-10.8831
▁verlassen	-10.8832
▁Leute	-10.8832
▁technologies	-10.8832
▁verteilt	-10.8832
▁ausgeschlossen	-10.8832
▁innovation	-10.8832
iederherstellung	-10.8833
▁jedenfalls	-10.8833
▁openness	-10.8833
▁Außenpolitik	-10.8833
▁July	-10.8833
▁extensive	-10.8833
▁dankbar	-10.8834
tober	-10.8835
▁anzunehmen	-10.8835
▁auswirken	-10.8835
▁Ok	-10.8835
▁angewendet	-10.8837
▁Treffen	-10.8837
▁necessarily	-10.8837
▁worrying	-10.8837
▁Just	-10.8838
▁declared	-10.8839
▁örtliche	-10.8841
▁sake	-10.8841
▁k	-10.8841
▁antworten	-10.8844
▁racist	-10.8845
▁Unternehmens	-10.8845
▁correctly	-10.8845
▁Haushaltslinie	-10.8846
▁Standards	-10.8846
▁offences	-10.8847
▁NGOs	-10.8849
▁regelmäßig	-10.8852
▁erwartet	-10.8854
▁gearbeitet	-10.8859
▁scoreboard	-10.8859
▁kritische	-10.8861
▁Niederlanden	-10.8862
▁Entschließungen	-10.8864
▁Ursachen	-10.8865
▁difficulty	-10.8867
▁felt	-10.8867
▁Fr	-10.8869
▁zulassen	-10.887
▁suffering	-10.887
▁benachteiligten	-10.8873
▁Produkte	-10.8876
▁contradictions	-10.8877
7	-10.8878
▁Ausschüssen	-10.888
tomobilindustrie	-10.888
▁weaken	-10.8882
▁deserves	-10.8883
▁38	-10.8884
▁flags	-10.8885
▁methods	-10.8885
▁green	-10.8885
President	-10.8886
▁Lasten	-10.8887
▁secondly	-10.8892
▁Culture	-10.8894
▁gerechtfertigt	-10.8903
▁dritten	-10.8908
▁environmentally	-10.8908
▁Intervention	-10.8909
▁deserve	-10.8909
▁schwere	-10.8911
institutional	-10.8913
▁mail	-10.8915
▁Stunden	-10.8918
▁Städten	-10.8928
▁Kommissare	-10.893
▁spoken	-10.8934
▁smaller	-10.8935
▁türkische	-10.8945
▁abgestimmt	-10.895
gabe	-10.8953
▁Tausende	-10.896
▁spite	-10.8968
▁purposes	-10.8973
▁drafting	-10.8975
▁Office	-10.8977
▁compare	-10.898
▁EG	-10.8982
▁Abs	-10.8986
▁profit	-10.8989
▁intern	-10.899
vorschriften	-10.8997
▁eight	-10.8998
os	-10.9001
▁12.	-10.9004
▁Binnenmarkts	-10.9006
▁crimes	-10.9008
arüber	-10.9008
▁born	-10.9009
▁method	-10.901
▁trifft	-10.9036
▁Hafen	-10.9052
▁dauerhafte	-10.9053
▁Stabilisierungs	-10.9054
ab	-10.9082
▁schlecht	-10.9084
▁laufende	-10.9094
sinitiative	-10.9098
die	-10.9099
▁überzeugen	-10.9101
▁bisherige	-10.9101
rs	-10.9123
▁zufrieden	-10.9124
▁top	-10.9128
▁Monat	-10.9137
▁Verfahrens	-10.915
▁fate	-10.9161
sgruppen	-10.9162
gesellschaft	-10.9163
teil	-10.917
▁Strategien	-10.9174
▁Ma	-10.9192
▁wiederhole	-10.9194
▁Anreize	-10.9198
▁Einwohner	-10.9202
▁riesige	-10.9203
▁America	-10.9205
▁heutige	-10.9205
▁Menschenrechts	-10.9206
▁ähnliche	-10.9207
▁Landwirte	-10.9209
▁Kräfte	-10.921
ealth	-10.9211
▁Ministerrat	-10.9212
▁500	-10.9213
sländer	-10.9222
▁occur	-10.9227
▁beträchtliche	-10.9228
▁Wandel	-10.923
▁choice	-10.923
▁deficit	-10.9231
▁explanation	-10.9231
▁consequence	-10.9232
▁check	-10.9238
▁violation	-10.9239
▁Anlage	-10.924
▁Elemente	-10.9243
▁erstens	-10.9244
tung	-10.9248
▁interessiert	-10.9254
saustausch	-10.9261
▁erhoben	-10.9262
▁stelle	-10.9266
et	-10.9266
▁charter	-10.927
▁reicht	-10.9273
▁destroy	-10.9277
▁careful	-10.928
▁immediate	-10.9282
möglichkeiten	-10.9285
▁Abhängigkeit	-10.9285
▁Donau	-10.9285
▁Flora	-10.9285
▁Luxembourg	-10.9285
▁Rubrik	-10.9285
▁Wurtz	-10.9285
▁insurance	-10.9285
▁satisfactory	-10.9285
▁zutiefst	-10.9285
▁tragedy	-10.9285
▁Einschätzung	-10.9286
▁abgelehnt	-10.9286
▁English	-10.9286
▁Montag	-10.9286
▁primarily	-10.9286
▁family	-10.9286
▁zurückzuführen	-10.9286
▁Gesamtheit	-10.9286
▁Unabhängigkeit	-10.9286
▁erlebt	-10.9286
▁vormittag	-10.9286
▁opposite	-10.9286
▁foremost	-10.9286
▁furthermore	-10.9286
▁festlegen	-10.9287
▁recall	-10.9287
▁tonnes	-10.9287
▁technological	-10.9287
▁prisoners	-10.9287
▁awareness	-10.9289
▁Sozialisten	-10.929
▁democratically	-10.929
▁constantly	-10.929
▁While	-10.929
▁produc	-10.9291
▁Bitte	-10.9291
▁whatever	-10.9291
▁genetically	-10.9292
▁ECHO	-10.9292
▁solches	-10.9292
▁Berger	-10.9293
▁denjenigen	-10.9294
▁entered	-10.9296
▁strictly	-10.9296
▁gespielt	-10.9297
▁Beteiligten	-10.9297
▁überlassen	-10.9298
▁independence	-10.9298
▁einführen	-10.9299
▁widely	-10.9299
▁Öl	-10.93
▁engaged	-10.9301
▁temporary	-10.9301
▁nötig	-10.9302
▁restore	-10.9303
▁mittlere	-10.9305
▁Handlungen	-10.9308
▁concluded	-10.931
▁soweit	-10.9311
▁obstacles	-10.9312
▁bewirken	-10.9312
▁encouraged	-10.9313
▁gap	-10.9318
▁hundreds	-10.9322
▁47	-10.9322
▁Durchsetzung	-10.9323
▁Renten	-10.9324
▁deswegen	-10.9324
▁verschiedener	-10.9328
sprinzip	-10.9334
▁failing	-10.9335
▁profits	-10.9336
ily	-10.9339
▁interregional	-10.9349
▁globale	-10.9351
▁represented	-10.9355
▁spread	-10.9359
▁trans	-10.9361
▁reiterate	-10.9361
▁bedeutsame	-10.9362
▁Ganz	-10.9363
▁hören	-10.9369
fremdenfeindlich	-10.937
minister	-10.9382
▁Signal	-10.9385
▁langfristige	-10.9388
▁st	-10.9406
ando	-10.9409
▁schlagen	-10.9411
▁retain	-10.9412
▁angewandt	-10.9415
▁islands	-10.9419
▁gleicher	-10.9421
▁Easter	-10.9422
▁Schwerpunkt	-10.9427
▁39	-10.9431
▁Anhörung	-10.9454
▁Entschädigung	-10.9455
▁erscheinen	-10.9456
▁Taten	-10.946
▁näher	-10.9467
▁wirksamer	-10.948
▁erwähnten	-10.9486
▁indication	-10.9501
▁Konsultation	-10.9511
▁Grundsätzen	-10.9512
▁involv	-10.9512
▁Ex	-10.9516
he	-10.9518
▁Schicksal	-10.952
kosten	-10.9527
▁Fischereisektor	-10.9538
▁irische	-10.9539
▁unt	-10.9541
▁ernste	-10.9542
how	-10.9553
▁Agrar	-10.9564
▁eigentliche	-10.9564
▁Her	-10.959
schaftlichen	-10.9591
▁sieben	-10.9607
▁veränderte	-10.9623
▁liberal	-10.9624
▁vollständige	-10.9628
▁Th	-10.9632
▁creates	-10.9639
Ländern	-10.9641
east	-10.9649
▁direkte	-10.965
▁Verlust	-10.967
▁Bestände	-10.967
▁ideal	-10.9672
▁Steuerzahler	-10.9675
▁Zeiten	-10.9676
▁genannt	-10.9676
▁schlage	-10.9686
▁tough	-10.9694
▁Person	-10.9703
▁authorisation	-10.9705
▁interpretation	-10.9705
▁Beziehung	-10.9709
▁allocation	-10.9711
▁300	-10.9715
ann	-10.9716
▁bekräftigt	-10.9726
▁gesamt	-10.9727
▁Krankheit	-10.9728
▁Last	-10.9734
▁safe	-10.9741
▁Gespräch	-10.9745
▁sonst	-10.9748
▁adapt	-10.975
▁witness	-10.9753
▁unfair	-10.9755
kriterien	-10.9757
▁Japan	-10.9761
▁Tendenz	-10.9762
▁Alavanos	-10.9762
▁Perhaps	-10.9762
▁Währungsunion	-10.9762
▁television	-10.9762
▁Luxemburg	-10.9762
▁Wiederbelebung	-10.9762
▁Kategorie	-10.9762
▁Sintra	-10.9762
▁gedenkt	-10.9762
▁equipment	-10.9762
▁Mitbürger	-10.9762
▁chairman	-10.9762
▁procedural	-10.9762
▁boost	-10.9762
▁beiträgt	-10.9762
▁Rechnungshof	-10.9762
▁complicated	-10.9762
▁entsteht	-10.9762
▁sichergestellt	-10.9762
▁obliegt	-10.9762
▁entry	-10.9763
▁untersuchen	-10.9763
▁child	-10.9763
▁Einschränkung	-10.9763
▁glad	-10.9763
▁verletzt	-10.9763
▁Marktwirtschaft	-10.9763
▁Hindernisse	-10.9763
▁garantieren	-10.9763
▁Unsicherheit	-10.9764
▁outset	-10.9764
▁ultimately	-10.9765
▁daily	-10.9765
▁anwenden	-10.9765
▁darlegen	-10.9765
▁unanimously	-10.9766
▁drinking	-10.9766
▁shift	-10.9767
▁millennium	-10.9768
▁soldiers	-10.9768
▁satisfaction	-10.9769
▁Wieder	-10.9769
▁gestattet	-10.9769
▁80%	-10.977
ährend	-10.9771
▁erweisen	-10.9771
ag	-10.9771
kept	-10.9772
▁Betroffenen	-10.9774
▁register	-10.9775
▁gelangt	-10.9776
▁Kapazitäten	-10.9776
▁restrictions	-10.9776
▁stake	-10.9778
▁respective	-10.978
▁gratulieren	-10.978
▁satisfied	-10.978
▁warning	-10.9781
▁mainstreaming	-10.9782
▁liefern	-10.9782
▁Serbs	-10.9784
▁Verbot	-10.9784
▁savings	-10.9784
▁mergers	-10.9789
▁sagten	-10.9794
▁400	-10.9794
▁enabl	-10.9795
▁unzureichend	-10.9796
▁Fisch	-10.9796
▁usual	-10.9797
▁maintained	-10.9798
▁keen	-10.98
▁contributed	-10.9801
▁suggestions	-10.9803
behörde	-10.9803
▁griechischen	-10.9808
iven	-10.981
▁städtischen	-10.9811
▁quote	-10.9814
▁exceptions	-10.9814
▁Besonder	-10.9817
▁Beitritts	-10.9818
▁polluter	-10.9821
▁italienischen	-10.9824
▁erklärte	-10.983
▁Situationen	-10.983
strategie	-10.983
▁regulate	-10.9831
▁pensions	-10.9837
▁lieber	-10.9838
▁getragen	-10.9844
▁stance	-10.9846
▁trust	-10.9847
▁Entsorgung	-10.9851
▁mußte	-10.9853
▁85	-10.9865
unter	-10.9871
▁Urteil	-10.9872
▁minister	-10.9877
▁Sektors	-10.9878
arbeitung	-10.988
▁meaning	-10.9894
enden	-10.9896
▁rates	-10.9901
▁Monopol	-10.9903
▁Over	-10.9911
spräsidentschaft	-10.9914
▁Head	-10.9923
▁29	-10.9924
entwicklung	-10.9927
▁breach	-10.9928
ittelausstattung	-10.9934
ative	-10.9936
▁sozialer	-10.9939
▁combine	-10.994
weit	-10.9941
▁motions	-10.9949
▁Betrug	-10.9954
▁interessante	-10.9957
▁Verkehrs	-10.9957
trifft	-10.9959
▁ältere	-10.9959
▁Organen	-10.9961
isierung	-10.9963
▁2006	-10.997
ich	-10.9971
▁geltend	-10.9971
▁requests	-10.9979
▁Könn	-10.9985
▁wirksamen	-10.999
enkung	-11
▁Dialogs	-11.0002
▁kontrollieren	-11.0005
▁erweitern	-11.0007
▁Ratspräsidenten	-11.0008
▁Nor	-11.0009
richtung	-11.0012
5-017	-11.0022
▁Strafrecht	-11.0032
▁Rand	-11.0034
▁einfache	-11.0037
sebene	-11.0037
house	-11.0038
entral	-11.0042
▁organisierte	-11.0049
day	-11.0049
▁Termin	-11.0051
▁Verursacher	-11.0053
▁shares	-11.0057
sstrategie	-11.0061
svorschlag	-11.0066
▁saubere	-11.0071
formation	-11.0103
▁Se	-11.0103
5-016	-11.0109
▁Verträgen	-11.0112
▁Gib	-11.0118
age	-11.012
▁irgend	-11.0134
▁arise	-11.0137
▁13.	-11.0146
▁hopes	-11.0146
▁Plan	-11.0149
▁replace	-11.0151
▁geregelt	-11.0153
programme	-11.0161
▁Boden	-11.0182
▁sprach	-11.0191
▁chinesische	-11.0192
▁Arten	-11.0193
▁Kontakte	-11.0195
▁ergänzen	-11.0197
▁Verhalten	-11.0201
▁Angleichung	-11.0204
▁Zulassung	-11.0204
▁employ	-11.0204
▁allows	-11.0205
▁Kontroll	-11.0206
▁Einleitung	-11.0207
▁erstes	-11.0207
▁investigation	-11.0209
▁option	-11.021
▁contradiction	-11.0211
▁Green	-11.0214
beauftragten	-11.0217
▁figure	-11.022
▁representation	-11.0221
▁Einkommen	-11.0228
erlei	-11.0228
▁continues	-11.0229
▁gegenseitig	-11.023
▁beruht	-11.0236
▁vorher	-11.024
▁putt	-11.0244
frage	-11.0246
DA	-11.0249
welt	-11.0259
▁Country	-11.0262
▁Effektivität	-11.0262
▁Gefühl	-11.0262
▁Kyoto	-11.0262
▁Stürme	-11.0262
▁bißchen	-11.0262
▁comitology	-11.0262
▁einzubeziehen	-11.0262
▁70/524	-11.0262
▁Protection	-11.0262
▁[	-11.0262
▁Ablehnung	-11.0262
▁Respekt	-11.0262
▁Barak	-11.0262
▁Wahlperiode	-11.0262
▁Belgium	-11.0262
▁crises	-11.0262
▁reliable	-11.0262
▁Finnland	-11.0262
▁CAP	-11.0262
▁Platz	-11.0262
▁unterbrochen	-11.0262
▁Problematik	-11.0262
▁GDP	-11.0262
▁speculation	-11.0262
▁Umfeld	-11.0262
▁keinesfalls	-11.0262
▁Mitwirkung	-11.0262
▁Total	-11.0262
▁category	-11.0262
▁nachmittag	-11.0262
▁advisers	-11.0262
▁850	-11.0262
▁Gesichtspunkt	-11.0262
▁rail	-11.0262
▁71	-11.0263
▁besitzen	-11.0263
▁vorzunehmen	-11.0263
▁50%	-11.0264
▁bewiesen	-11.0264
▁beweist	-11.0266
▁Bedürfnisse	-11.0267
▁800	-11.0267
▁gebilligt	-11.0268
▁GVO	-11.0268
▁countryside	-11.0269
dependent	-11.0269
▁attend	-11.027
compliance	-11.027
▁ferner	-11.027
▁Mitgliedsländer	-11.027
▁gestatten	-11.0271
▁envisaged	-11.0272
▁unmöglich	-11.0273
▁launched	-11.0273
▁Sea	-11.0275
▁einzuführen	-11.0275
▁beschließen	-11.0275
▁inflation	-11.0275
▁reflected	-11.0276
▁accountable	-11.0276
▁Erster	-11.0276
EN	-11.0276
▁finanzieren	-11.0277
▁bezahlen	-11.0277
▁herzustellen	-11.0277
▁wünschenswert	-11.028
▁bound	-11.0281
▁taxpayers	-11.0283
▁Where	-11.0284
▁choose	-11.0285
▁successfully	-11.0287
▁wettbewerbs	-11.0288
▁verwiesen	-11.0289
▁Fest	-11.0291
▁lessons	-11.0292
▁uphold	-11.0293
Gesundheitswesen	-11.0296
▁CEN	-11.0296
▁towns	-11.0297
▁assets	-11.0298
▁decades	-11.0302
▁Jeder	-11.0304
▁ziemlich	-11.0307
▁opened	-11.0309
▁rufen	-11.031
▁Timor	-11.0311
▁hierzu	-11.0316
▁Grundlagen	-11.0318
▁protest	-11.0319
▁aktuellen	-11.032
▁vorgehen	-11.032
▁ministers	-11.032
▁compatible	-11.0321
▁derart	-11.0322
▁regeln	-11.0323
▁mal	-11.0324
▁interested	-11.0324
▁preserve	-11.0325
▁Albanians	-11.033
▁81	-11.0335
▁tuna	-11.0336
▁Chancen	-11.0339
▁animals	-11.0342
▁hearing	-11.0343
▁Texte	-11.0343
▁shape	-11.0355
▁umgehend	-11.0356
▁Verteilung	-11.036
▁Ideen	-11.0376
▁enforce	-11.0376
▁unti	-11.0377
▁Übereinkommens	-11.0382
▁nachhaltig	-11.0383
▁Schutzes	-11.0387
▁wollten	-11.0396
▁Krisen	-11.0397
svorschläge	-11.0399
▁Asyl	-11.0406
▁automatisch	-11.0425
▁Verhandlungs	-11.0428
▁wirken	-11.0434
▁lacking	-11.0443
▁bit	-11.0455
▁pursue	-11.0461
▁48	-11.0461
▁voraus	-11.0469
▁wirkliche	-11.0472
▁entwe	-11.0475
ivilgesellschaft	-11.0481
▁Well	-11.0481
▁none	-11.0482
Bericht	-11.0485
5-015	-11.0489
▁anhaltende	-11.0491
▁importantly	-11.0492
▁friedliche	-11.0496
▁Beifall	-11.0503
▁schwerwiegend	-11.0504
▁demokratischer	-11.0508
onsequently	-11.0509
▁Teile	-11.0512
▁Verwaltungen	-11.0514
▁doubts	-11.0517
▁Unabhängig	-11.0533
▁leiden	-11.0535
▁Fische	-11.056
▁bewegen	-11.056
/1999	-11.0564
▁angekündigt	-11.0571
▁verständlich	-11.0577
Christdemokraten	-11.06
▁abhängig	-11.0609
▁36	-11.0614
related	-11.0614
▁combin	-11.0616
session	-11.0625
▁Arbeitnehmern	-11.0631
▁travel	-11.0633
▁Außenminister	-11.0633
▁Wassers	-11.0635
▁Terr	-11.0636
▁Rechtshilfe	-11.0645
▁interne	-11.0664
▁Prim	-11.0674
land	-11.0679
▁befürworte	-11.0681
▁Energien	-11.0685
▁beantragt	-11.0685
▁Si	-11.069
▁Auswei	-11.0692
▁Widersprüche	-11.0697
▁unterbreitet	-11.0698
▁Abstimmungen	-11.0701
▁Lehre	-11.0709
▁Rechtsprechung	-11.0712
▁Russia	-11.0714
▁richtigen	-11.0715
falls	-11.0726
▁möge	-11.0726
▁Spannung	-11.0727
▁Fähigkeit	-11.0733
▁judgement	-11.0733
▁settlement	-11.0734
▁Veränderung	-11.0735
▁außen	-11.0735
▁deadline	-11.0737
unternehmen	-11.0739
▁Ausmaß	-11.0739
erst	-11.074
▁contact	-11.074
▁notification	-11.0741
innen	-11.0745
▁künftige	-11.0748
▁Bar	-11.0749
statten	-11.075
▁entail	-11.0751
▁Mittelmeer	-11.0754
▁vision	-11.0757
▁wahr	-11.0764
▁erörtert	-11.0766
▁Versuch	-11.0774
ever	-11.0777
▁Ratifizierung	-11.0779
▁rigorous	-11.0781
▁apparent	-11.0782
▁Generalsekretär	-11.0782
▁wertvolle	-11.0782
▁Vorrang	-11.0786
▁fifth	-11.0787
▁Defence	-11.0788
▁Viceconte	-11.0788
▁akzeptabel	-11.0788
▁dignity	-11.0788
▁beinhaltet	-11.0788
▁facilities	-11.0788
konstitutionelle	-11.0788
▁GAP	-11.0788
▁realistic	-11.0788
▁eliminate	-11.0788
▁Klarheit	-11.0788
▁Sitzungsperiode	-11.0788
▁vulnerable	-11.0788
▁intellectual	-11.0788
▁Belgian	-11.0788
▁duties	-11.0788
▁proud	-11.0788
▁Presse	-11.0788
▁Quite	-11.0788
▁Grundfreiheiten	-11.0788
▁reconciliation	-11.0789
▁minor	-11.0789
▁angewiesen	-11.0789
▁Experten	-11.0789
▁Experts	-11.0789
▁decentralised	-11.079
▁eventually	-11.079
▁twenty	-11.079
▁veröffentlicht	-11.079
▁festhalten	-11.079
▁Angst	-11.079
▁located	-11.079
▁Instance	-11.079
▁abandoned	-11.0791
▁Strafsachen	-11.0791
▁Schreiben	-11.0791
▁missing	-11.0791
▁Volksgruppen	-11.0791
▁understood	-11.0791
▁Parlamentarier	-11.0792
▁bedauere	-11.0793
▁hinnehmbar	-11.0794
▁existiert	-11.0795
▁writing	-11.0795
▁Rußland	-11.0795
▁Besteuerung	-11.0795
▁zugute	-11.0795
▁speculative	-11.0795
▁anstreben	-11.0796
▁Dienststellen	-11.0796
▁tragic	-11.0798
▁behaupten	-11.0799
▁auffordern	-11.0799
▁umsetzen	-11.0799
▁complaint	-11.0801
▁angeführt	-11.0801
▁inhabitants	-11.0801
▁angehören	-11.0802
sverhandlungen	-11.0804
▁condemned	-11.0806
▁vornehmen	-11.0807
▁gone	-11.0808
▁incentives	-11.081
▁fühlen	-11.0812
▁Pinochet	-11.0813
▁erlauben	-11.0813
▁city	-11.0813
▁stabilisation	-11.0814
▁protected	-11.0818
▁verändern	-11.0821
▁Dollar	-11.0822
▁Also	-11.0823
▁coordinated	-11.0824
▁exceptional	-11.0824
▁zerstört	-11.0825
ir	-11.0826
▁strengthened	-11.0827
▁minutes	-11.0827
▁arms	-11.0829
▁previously	-11.0829
▁yes	-11.0832
▁vorherige	-11.0832
▁geprägt	-11.0837
▁32	-11.0838
▁sonstige	-11.0839
Wasserressourcen	-11.0839
▁ehrgeizige	-11.084
▁deadlines	-11.0842
▁evident	-11.0843
▁dänischen	-11.0845
u	-11.0854
▁überein	-11.0855
▁Wo	-11.0857
▁imagine	-11.086
▁fehlen	-11.0864
▁diverse	-11.0873
systems	-11.0874
▁neo	-11.0884
▁konstruktive	-11.0886
▁ernsthafte	-11.0891
▁gründlich	-11.0895
▁demanding	-11.0895
▁Hinweise	-11.0902
▁einstimmig	-11.0906
▁ignore	-11.0907
▁n	-11.0912
gruppen	-11.0925
▁ausreichende	-11.0926
▁weisen	-11.0928
▁wachsende	-11.0939
▁Würde	-11.0942
▁incorporate	-11.0951
santräge	-11.0951
▁Asia	-11.0954
9	-11.0956
▁Tiere	-11.0957
überschreitende	-11.096
rish	-11.0963
▁Tätigkeiten	-11.0965
▁33	-11.0966
▁Ha	-11.0967
▁Zivil	-11.0967
ahrung	-11.0975
▁3.	-11.0982
▁interventions	-11.0988
▁beste	-11.0988
▁Unterschied	-11.0993
▁effektive	-11.0997
▁partnerships	-11.1
▁ordnungsgemäße	-11.1003
▁refus	-11.1007
zufolge	-11.1016
▁absurd	-11.103
▁gewissen	-11.1032
▁Erde	-11.1035
▁Sitzungen	-11.1041
sehen	-11.105
▁interessant	-11.1076
▁Gestaltung	-11.1077
▁gebe	-11.1079
wirtschaftlicher	-11.1079
▁Gewicht	-11.1084
▁proportion	-11.1088
Vertrag	-11.11
rechtskommission	-11.1108
▁Betrieb	-11.1108
fahren	-11.1112
ordnung	-11.1115
▁characterise	-11.1117
▁vieler	-11.1122
▁gehe	-11.1122
sprozesses	-11.1154
based	-11.1167
▁hinausgehen	-11.1177
▁Produktion	-11.1184
▁entstanden	-11.1187
▁adhere	-11.119
▁ausge	-11.12
end	-11.1211
▁Wiederauf	-11.1219
▁systematisch	-11.1228
▁neun	-11.1229
▁Studie	-11.123
zusammenarbeiten	-11.1233
estic	-11.1236
▁müsse	-11.1239
▁push	-11.1243
▁CO	-11.125
▁Defizit	-11.1251
▁legt	-11.1259
szusammenarbeit	-11.126
▁era	-11.1261
▁Management	-11.1261
▁network	-11.1264
▁Altfahrzeuge	-11.1272
▁Midd	-11.1276
▁Rumänien	-11.1276
▁Nahrungsmittel	-11.1276
▁chain	-11.1279
▁reagiert	-11.1282
▁argument	-11.1282
▁ambition	-11.1286
▁slick	-11.1286
▁Baskenland	-11.1287
▁MEP	-11.129
▁Zielsetzung	-11.1293
▁14.	-11.1294
sche	-11.1294
▁Assoziierung	-11.1295
▁chemical	-11.1296
▁debt	-11.1298
▁7,	-11.1305
kommen	-11.1307
▁gemein	-11.131
▁Vorteil	-11.1312
▁justify	-11.1317
ying	-11.1318
▁Garantie	-11.1322
1999	-11.1323
▁konzentriert	-11.1324
▁gering	-11.133
▁prospect	-11.133
llow	-11.1333
▁Küsten	-11.1336
▁Wille	-11.1337
▁gradual	-11.1337
▁traditional	-11.1339
▁Wahrheit	-11.134
▁coordinate	-11.134
▁Yugoslav	-11.1343
▁Attwooll	-11.1344
▁Authority	-11.1344
▁Britain	-11.1344
▁Buesa	-11.1344
▁Citizens	-11.1344
▁Nassau	-11.1344
▁Verheugen	-11.1344
▁agencies	-11.1344
▁beeinträchtigt	-11.1344
▁bureaucratic	-11.1344
▁unanimity	-11.1344
▁Identität	-11.1344
▁unterbreiten	-11.1344
▁gestärkt	-11.1344
▁Titel	-11.1344
▁besitzt	-11.1344
▁verringern	-11.1344
▁Energieträger	-11.1344
▁MEDA	-11.1344
▁worthwhile	-11.1344
▁Einwände	-11.1344
▁Vorausschau	-11.1344
▁Gebäude	-11.1344
▁erleichtern	-11.1344
▁Branche	-11.1344
▁Franz	-11.1344
▁Karas	-11.1344
▁überprüft	-11.1344
▁Öffnung	-11.1344
▁Genau	-11.1344
▁himself	-11.1344
▁uncertainty	-11.1344
übung	-11.1344
▁Clearly	-11.1344
▁categories	-11.1344
▁Regard	-11.1344
▁größtmögliche	-11.1344
▁Trade	-11.1344
▁meantime	-11.1344
▁Begründung	-11.1345
▁Tisch	-11.1345
▁Zusammenleben	-11.1345
▁verzeichnen	-11.1345
▁Berend	-11.1345
▁disagree	-11.1345
▁visible	-11.1345
▁vorankommen	-11.1346
▁feature	-11.1346
▁durchgesetzt	-11.1346
seitig	-11.1346
▁froh	-11.1346
▁Dort	-11.1347
▁schließt	-11.1347
▁repeatedly	-11.1348
▁Belgien	-11.1348
▁erinnere	-11.1348
▁shortcomings	-11.1348
▁Äußerungen	-11.1349
▁terrible	-11.1349
▁zählt	-11.1349
▁Teilnahme	-11.1349
▁gradually	-11.135
▁apparently	-11.135
▁durchsetzen	-11.135
▁divided	-11.135
-1-	-11.1351
▁Todesstrafe	-11.1351
▁Kohäsionsfonds	-11.1351
▁harmful	-11.1351
▁complement	-11.1351
▁unnecessary	-11.1351
▁performance	-11.1351
▁sincerely	-11.1352
▁Ungleichheiten	-11.1352
▁enlarged	-11.1352
▁einzusetzen	-11.1352
▁observed	-11.1352
▁Infrastrukturen	-11.1353
Fortsetzung	-11.1353
▁distortion	-11.1354
▁electora	-11.1354
▁destroyed	-11.1354
▁Reding	-11.1355
▁abgesehen	-11.1355
▁interim	-11.1355
▁gained	-11.1356
▁eingeschränkt	-11.1357
▁gefaßt	-11.1358
▁gewonnen	-11.1359
▁Vertretung	-11.1359
▁organisms	-11.136
▁bedauern	-11.1361
▁Gesundheits	-11.1361
▁suitable	-11.1361
▁engage	-11.1362
▁ausländische	-11.1362
▁sought	-11.1363
▁urgently	-11.1363
▁geringer	-11.1364
▁Sozialistische	-11.1364
▁Führung	-11.1365
▁Weiter	-11.1366
▁notice	-11.1367
▁defended	-11.1367
▁Herstellung	-11.1368
▁ongoing	-11.137
▁determined	-11.137
▁Kommunikation	-11.137
▁begrenzte	-11.1373
▁kämpfen	-11.1375
oubtedly	-11.1376
▁regulated	-11.1377
▁Beschäftigten	-11.1377
▁43	-11.1378
▁completed	-11.1379
▁components	-11.1379
▁legitim	-11.1381
▁Minuten	-11.1381
▁Drittländern	-11.1383
▁Einstellung	-11.139
▁langsam	-11.1394
▁charges	-11.1394
▁gegenseitige	-11.1395
▁discipline	-11.1396
▁expected	-11.1396
ural	-11.1399
▁vorgetragen	-11.1399
▁qualitativ	-11.14
▁Drittstaaten	-11.1405
▁compensate	-11.1406
▁checks	-11.141
ein	-11.1411
▁Code	-11.1412
▁verantwortungs	-11.1413
▁unverzüglich	-11.1414
▁Kooperations	-11.1424
▁works	-11.1438
lle	-11.1441
▁konstruktiven	-11.1441
▁throw	-11.1445
▁persons	-11.1447
▁ports	-11.1447
▁Eisen	-11.1448
▁firms	-11.1449
▁Zusammenhalts	-11.1453
▁envisage	-11.146
▁neighbours	-11.1462
▁Any	-11.1463
hebung	-11.1463
sch	-11.1465
▁freie	-11.1467
▁humanitären	-11.1472
▁Tonne	-11.1472
▁blind	-11.1474
▁Dienstleistungs	-11.1479
▁attempts	-11.1484
▁folg	-11.1491
▁contribut	-11.1509
sinitiativen	-11.1513
klichkeit	-11.1515
unterschiedliche	-11.1517
losen	-11.1528
▁festzustellen	-11.1539
▁Inseln	-11.1544
▁Pro	-11.1546
▁präzise	-11.1547
▁Ehre	-11.155
lecommunications	-11.1555
wo	-11.1556
▁genauer	-11.1558
▁Grad	-11.1567
▁Ziels	-11.1567
▁Völkern	-11.1571
▁slow	-11.1579
▁inn	-11.1594
definitely	-11.1608
fonds	-11.1612
▁fahren	-11.1614
▁experiences	-11.1623
▁Sicher	-11.1624
▁negativ	-11.1624
kontrolle	-11.1625
▁Gefahren	-11.1628
▁Strafrechts	-11.1628
▁Berichten	-11.1634
signed	-11.1636
Richtlinie	-11.164
▁got	-11.1643
▁persisten	-11.1644
▁bloße	-11.1647
▁extrem	-11.1651
▁populations	-11.1653
EG	-11.166
schluß	-11.1664
▁streng	-11.1668
ping	-11.1672
▁con	-11.1672
sweise	-11.1673
Derivate	-11.1687
▁dient	-11.1698
▁Steuern	-11.1701
nce	-11.1714
▁author	-11.1722
seits	-11.1734
▁Sachverständige	-11.1734
Verantwortlichen	-11.1735
Ausnahmeregelung	-11.1736
level	-11.1738
liche	-11.174
▁Du	-11.1742
▁feels	-11.1744
▁multilateral	-11.1747
institutionelle	-11.1767
▁kinds	-11.1771
▁öffentlich	-11.1773
▁Cambodia	-11.1773
▁virtue	-11.1786
inancial	-11.1792
von	-11.1794
▁erwarte	-11.1798
▁strategisch	-11.1805
▁zulässig	-11.181
quality	-11.1817
▁Romania	-11.1824
▁du	-11.1825
▁exception	-11.1827
▁Te	-11.1831
▁Mängel	-11.1832
▁suffer	-11.1835
▁beziehe	-11.1839
▁Argument	-11.1842
▁Zwei	-11.1842
▁Alternative	-11.1848
▁ausführlich	-11.1851
▁appelliere	-11.1852
▁Nord	-11.1852
▁befürworten	-11.1855
▁Leide	-11.1862
▁Brovina	-11.1864
▁charge	-11.1868
▁Auslegung	-11.1871
▁strength	-11.1872
▁Betrag	-11.1872
▁ausgehend	-11.1873
▁höchst	-11.1874
▁Großbritannien	-11.1874
▁Mensch	-11.1876
▁Reichtum	-11.1876
▁article	-11.1877
▁observation	-11.1879
▁indicate	-11.1882
▁beings	-11.1885
▁Ausgleich	-11.1885
▁deprive	-11.1892
▁tanker	-11.1894
▁Gesetz	-11.1909
▁Vorsitz	-11.1914
des	-11.1914
▁hour	-11.1916
▁dahingehend	-11.1921
▁technologische	-11.1924
▁diplomatische	-11.1924
▁thorough	-11.1925
▁constant	-11.1926
▁unfortunate	-11.1926
▁anchov	-11.1931
▁jeweil	-11.1931
▁2000-2005	-11.1932
▁Babitsky	-11.1932
▁Babitzkij	-11.1932
▁Brittany	-11.1932
▁Díez	-11.1932
▁EMU	-11.1932
▁Verstärkung	-11.1932
▁afraid	-11.1932
▁ausüben	-11.1932
▁schottische	-11.1932
▁tremendous	-11.1932
▁Übertragung	-11.1932
▁UNMIK	-11.1932
▁ratified	-11.1932
▁rechtfertigen	-11.1932
▁confusion	-11.1932
▁förderfähig	-11.1932
▁stolz	-11.1932
▁utmost	-11.1932
▁biological	-11.1932
▁stattgefunden	-11.1932
▁EUROPOL	-11.1932
▁conjunct	-11.1932
▁vague	-11.1932
▁Unterlagen	-11.1932
▁gelingen	-11.1932
▁Mobilität	-11.1932
▁Zusätzlichkeit	-11.1932
▁unterstrichen	-11.1932
▁Stahlindustrie	-11.1932
▁Burma	-11.1932
▁schwedische	-11.1932
▁subsidies	-11.1932
▁aufgezeigt	-11.1932
▁Golan	-11.1932
▁circulation	-11.1932
▁erfaßt	-11.1932
▁occurring	-11.1932
▁Wasserqualität	-11.1933
▁Time	-11.1933
▁erörtern	-11.1933
▁sozusagen	-11.1933
▁invitation	-11.1933
▁senior	-11.1933
▁salmon	-11.1933
▁Ansätze	-11.1933
▁zuzustimmen	-11.1933
▁unique	-11.1933
▁liable	-11.1933
▁mangelnde	-11.1933
▁klarstellen	-11.1934
▁Ergänzung	-11.1934
▁Drei	-11.1934
▁Home	-11.1935
▁suspended	-11.1935
▁stipulated	-11.1936
▁explicitly	-11.1936
obachtungsstelle	-11.1936
▁Praktiken	-11.1936
xas	-11.1937
▁resumed	-11.1938
▁droht	-11.1938
▁geschädigt	-11.1938
▁613	-11.1939
▁1986	-11.1939
▁deplore	-11.1939
▁Komitologie	-11.1939
▁forestry	-11.194
▁beantwortet	-11.194
▁More	-11.194
▁besorgt	-11.1941
▁überwinden	-11.1941
▁excuse	-11.1942
▁dasselbe	-11.1942
▁begun	-11.1943
▁removed	-11.1943
▁vergleichbar	-11.1943
▁moreover	-11.1943
▁Soldaten	-11.1943
▁notably	-11.1943
▁klären	-11.1944
▁nachdenken	-11.1944
▁Bediensteten	-11.1945
Entschlossenheit	-11.1945
▁attached	-11.1945
▁accompanie	-11.1947
▁frontiers	-11.1947
▁rechnen	-11.1947
▁remit	-11.1947
▁GMOs	-11.1948
▁monitored	-11.195
/99)	-11.195
▁losses	-11.1951
▁physical	-11.1955
▁Umweltbereich	-11.1956
▁resort	-11.1956
▁Umweltpolitik	-11.1957
▁erwähnte	-11.1957
▁selective	-11.1958
▁Trinkwasser	-11.1958
▁respektieren	-11.1959
▁prinzipiell	-11.1959
▁significantly	-11.196
fall	-11.1962
▁floods	-11.1962
▁kleiner	-11.1964
▁shortly	-11.1965
▁marked	-11.197
▁launch	-11.1972
▁voluntar	-11.1974
▁Kurz	-11.1975
▁judges	-11.1985
▁focused	-11.1985
▁ambitions	-11.1989
▁Linken	-11.1989
▁definitive	-11.1989
▁emphasised	-11.199
▁harm	-11.1998
▁denied	-11.1999
ro	-11.1999
▁Methoden	-11.2006
▁Preise	-11.2007
▁drittens	-11.2007
▁Freedoms	-11.2009
ver	-11.201
▁blame	-11.201
▁desperate	-11.2012
▁fit	-11.202
▁übermäßige	-11.2024
▁Finanzierungs	-11.2025
▁looked	-11.2028
▁kompliziert	-11.2029
hren	-11.2031
▁wahren	-11.2031
▁meant	-11.2032
▁frequent	-11.2034
▁zukommen	-11.2037
▁competences	-11.2039
▁image	-11.2041
▁criticisms	-11.2042
▁associations	-11.2042
▁block	-11.2048
▁angeblich	-11.2051
▁threaten	-11.2062
sgesellschaften	-11.2063
▁house	-11.2067
▁leichter	-11.2069
1	-11.2076
▁Dur	-11.2092
▁modernen	-11.2095
▁Liebe	-11.2095
▁lay	-11.2103
▁Themas	-11.2111
▁wenden	-11.2111
ism	-11.2117
▁Absichten	-11.212
hüt	-11.2121
V	-11.2124
▁Weil	-11.2128
▁offenen	-11.2141
▁betrieben	-11.2141
gehen	-11.2142
▁Betracht	-11.2142
ll	-11.2155
▁Wachstums	-11.2161
verantwortung	-11.2164
▁fewer	-11.2167
▁funktionieren	-11.2168
Überschwemmungen	-11.2177
▁geschützt	-11.2178
▁schneller	-11.2186
▁Auge	-11.2198
▁wage	-11.2198
▁intensive	-11.22
▁juristische	-11.2201
▁numbers	-11.2205
▁höchsten	-11.2209
▁Fremd	-11.2212
feindlichkeit	-11.2213
▁organisiert	-11.2219
evitably	-11.2223
▁doppelte	-11.2224
building	-11.2227
é	-11.2228
▁Tages	-11.2237
▁Frei	-11.2244
▁Rote	-11.2248
▁arm	-11.225
▁primar	-11.2256
▁Gesellschaften	-11.2257
bewertung	-11.2259
▁Stabilisierung	-11.226
▁41	-11.2263
▁Fremden	-11.2265
▁Vertrauens	-11.2277
▁kurzen	-11.2282
▁4,	-11.2287
▁beschäftigungs	-11.2291
▁offiziell	-11.2298
▁13,	-11.2298
sphase	-11.2301
▁weg	-11.2303
▁Welthandels	-11.2312
leading	-11.2315
▁eventuell	-11.2322
▁42	-11.2322
ised	-11.2328
teiligung	-11.2333
▁verankert	-11.2334
▁refuse	-11.2343
lassen	-11.2347
raft	-11.2353
▁genaue	-11.2353
▁mistake	-11.2372
haltung	-11.2381
▁23	-11.2391
w	-11.2405
▁beider	-11.2406
rfüll	-11.2412
ethnic	-11.2418
▁grow	-11.2433
▁Van	-11.2434
▁ständige	-11.2441
▁erläutert	-11.2442
▁fassen	-11.2448
appears	-11.245
▁disappear	-11.2457
▁könne	-11.246
▁Werten	-11.2461
▁Kontakt	-11.2462
▁Umlauf	-11.2464
▁Verhandlung	-11.2465
mission	-11.2466
▁Tatsachen	-11.2466
▁began	-11.2471
▁Finanzmärkte	-11.2473
▁input	-11.2474
▁55	-11.2475
▁hervor	-11.2476
▁schließe	-11.2485
▁judge	-11.2491
▁Formulierung	-11.2495
▁erstmal	-11.2495
▁Kompetenz	-11.2498
▁translation	-11.2499
▁experienc	-11.25
▁clause	-11.2502
▁suggestion	-11.2505
▁Einstimmigkeit	-11.2506
▁belong	-11.251
▁Bestimmung	-11.2511
▁pact	-11.2513
▁pillar	-11.252
▁verbindliche	-11.2523
prinzip	-11.2538
▁Schwerpunkte	-11.2542
▁Oberflächen	-11.2545
weilen	-11.2547
▁eröffnet	-11.2549
▁subsequent	-11.255
▁honest	-11.2551
▁reverse	-11.2551
▁zone	-11.2552
▁Konsens	-11.2553
▁Jahrzehnt	-11.2553
▁renew	-11.2555
▁federal	-11.2555
▁perfect	-11.2555
▁Scot	-11.2557
▁Aquakultur	-11.2557
▁Corbett	-11.2557
▁Czech	-11.2557
▁Differenz	-11.2557
▁Dublin	-11.2557
▁Hudghton	-11.2557
▁ICCAT	-11.2557
▁SAVE	-11.2557
▁Südafrika	-11.2557
▁Tierernährung	-11.2557
▁WWU	-11.2557
▁beunruhigt	-11.2557
▁disappointed	-11.2557
▁entfernt	-11.2557
▁feasible	-11.2557
▁phenomenon	-11.2557
▁reduzieren	-11.2557
▁scrutiny	-11.2557
▁societies	-11.2557
▁verwirklicht	-11.2557
▁Dimitrakopoulos	-11.2557
▁EDF	-11.2557
▁Evans	-11.2557
▁KFOR	-11.2557
▁vernommen	-11.2557
▁Verstöße	-11.2557
▁appreciation	-11.2557
▁Kapitel	-11.2557
▁Fischbestände	-11.2557
▁geistige	-11.2557
▁expertise	-11.2557
▁wachsam	-11.2557
▁Demonstration	-11.2557
▁stattfindet	-11.2557
▁Ernennung	-11.2557
▁Wichtigkeit	-11.2557
▁Gültigkeit	-11.2557
▁verwirklichen	-11.2557
▁gather	-11.2557
▁2010	-11.2557
▁EEF	-11.2557
▁enforcement	-11.2557
▁Regelwerk	-11.2557
▁eröffnen	-11.2558
▁Cox	-11.2558
▁philosophy	-11.2558
▁Indonesia	-11.2558
▁examining	-11.2558
▁abstimmen	-11.2558
▁contrast	-11.2558
▁Mission	-11.2558
▁Erhebung	-11.2558
▁summit	-11.2558
mann	-11.2559
▁verursachen	-11.2559
▁genehmigt	-11.2559
▁vollzogen	-11.2559
▁durchzusetzen	-11.256
▁credible	-11.2561
▁Verfasser	-11.2561
▁unemployed	-11.2561
▁additionality	-11.2561
▁killed	-11.2562
▁geklärt	-11.2562
▁einräumen	-11.2562
▁abgeben	-11.2563
▁tried	-11.2563
▁subsequently	-11.2564
▁verdienen	-11.2564
▁participating	-11.2564
▁bereitet	-11.2564
▁transportation	-11.2564
▁consumption	-11.2565
▁propaganda	-11.2565
▁nine	-11.2565
▁ersetzt	-11.2565
▁Decision	-11.2566
▁arrived	-11.2567
▁betreiben	-11.2568
▁irgendw	-11.2569
▁Somit	-11.257
▁hergestellt	-11.257
▁assent	-11.2571
▁berichten	-11.2571
▁defining	-11.2573
▁constraints	-11.2573
▁barriers	-11.2573
▁aspirations	-11.2573
▁enhance	-11.2573
▁welcomes	-11.2574
▁italienische	-11.2574
▁beweisen	-11.2576
▁beef	-11.2576
▁advanced	-11.2578
▁appeared	-11.2579
▁Yes	-11.2581
▁gewünscht	-11.2581
▁virus	-11.2582
▁Fremdenverkehrs	-11.2583
▁inequality	-11.2583
▁Erfordernisse	-11.2583
▁kostet	-11.2584
▁erneuerbarer	-11.2587
▁erheben	-11.2588
▁kurze	-11.259
▁Leinen	-11.259
▁Europeans	-11.2591
▁touch	-11.2593
▁describe	-11.2594
▁Grundwassers	-11.2594
▁82	-11.2595
▁Haftung	-11.2597
▁Stück	-11.2597
▁payments	-11.2597
▁banks	-11.2601
▁Profess	-11.2602
weg	-11.2604
▁journalists	-11.2604
▁überlegen	-11.2605
▁Erzeuger	-11.2605
▁pending	-11.2609
▁technisch	-11.2611
▁tankers	-11.2614
▁70	-11.2619
▁agrees	-11.2622
▁infolge	-11.2623
▁Licht	-11.2627
ts	-11.2627
▁Waren	-11.263
sprogramm	-11.2634
▁Kunden	-11.2635
▁20.	-11.2637
▁mid	-11.2646
▁leader	-11.2655
▁alter	-11.2656
▁getreten	-11.266
all	-11.2664
▁reflects	-11.2666
▁Existenz	-11.2667
▁undermine	-11.2669
▁turning	-11.267
▁Budgets	-11.2671
▁Königreichs	-11.2671
▁Palestinians	-11.2671
▁verbindlich	-11.2675
▁Perspektiven	-11.2679
nsbesondere	-11.2684
▁Andre	-11.2684
▁kleinere	-11.2685
▁mögen	-11.2689
ren	-11.2691
L	-11.2693
▁conventions	-11.2696
▁Regulierung	-11.2697
▁Rechtsstaat	-11.2698
▁president	-11.2717
▁87	-11.272
▁holds	-11.2721
schreitende	-11.2724
▁transfers	-11.2728
elekommunikation	-11.2729
▁Dienstes	-11.2738
▁schwieriger	-11.2739
▁funktionierende	-11.274
▁Investition	-11.2744
▁Geldfälschung	-11.2745
▁Programmplanung	-11.2746
▁erstellt	-11.2746
▁Beschlüssen	-11.275
▁zusätzlichen	-11.2751
▁lehne	-11.2755
▁Mich	-11.2755
im	-11.2767
konferenz	-11.2767
▁gerechte	-11.2767
▁refers	-11.2784
▁standing	-11.2787
gewässer	-11.2795
▁contributes	-11.2803
▁inhaltlich	-11.2807
▁exchanges	-11.2816
▁einfacher	-11.2817
▁extra	-11.2819
▁Water	-11.2835
▁believes	-11.2837
▁Schiff	-11.2838
lav	-11.2846
▁dieselben	-11.2849
rüber	-11.2851
▁rational	-11.2863
sbefugnisse	-11.2866
▁geleistete	-11.2904
▁Zwa	-11.2905
▁supranational	-11.2909
staatliche	-11.291
▁kurzfristig	-11.2911
Finanzinstrument	-11.2912
friedenstellend	-11.2916
ssystem	-11.2923
▁Binnen	-11.2925
einem	-11.2925
▁devote	-11.2931
▁modernis	-11.2938
situation	-11.2944
wissenschaftlich	-11.2946
▁aufgestellt	-11.2946
gesetzgebung	-11.2952
▁Versorgung	-11.2956
▁socio	-11.2962
▁Aid	-11.2962
▁Vertreters	-11.2978
wenig	-11.2979
▁ante	-11.2979
zeichen	-11.298
▁receiv	-11.2997
▁berechtigt	-11.3001
S	-11.3008
▁bases	-11.3014
▁Nah	-11.3015
ard	-11.3016
Der	-11.3017
▁manufactur	-11.3027
tellung	-11.3028
▁east	-11.3032
▁politisches	-11.3034
▁effizienter	-11.3035
▁trial	-11.3043
▁Instrumenten	-11.3049
▁niedrige	-11.3052
modified	-11.3056
instrument	-11.3063
ohesion	-11.3065
6	-11.3082
▁ablehnen	-11.3087
▁strafrechtlich	-11.309
▁weak	-11.3098
Naturkatastrophe	-11.3106
▁bedeutsam	-11.3111
▁staatlich	-11.3112
▁zwingen	-11.3113
▁Unternehmer	-11.3121
▁angestrebte	-11.3121
▁4.	-11.3122
dauer	-11.3129
▁grundsätzliche	-11.3133
▁Ber	-11.3135
▁Ziffer	-11.3137
▁gewöhnlich	-11.3139
▁Every	-11.314
▁Methode	-11.3144
sektor	-11.3147
▁gegebenen	-11.3153
▁Verhältnisse	-11.3155
▁europäisch	-11.3156
▁belief	-11.316
▁Zentralbank	-11.3161
▁incident	-11.3163
▁division	-11.3164
▁Pfeiler	-11.3164
▁drop	-11.3165
▁Grenze	-11.3167
▁exemption	-11.3169
▁decade	-11.317
▁thousand	-11.317
▁river	-11.317
▁Lohn	-11.3174
▁Territorium	-11.3177
▁hundred	-11.3178
politische	-11.3179
▁merit	-11.3179
stand	-11.318
▁Constitution	-11.3186
über	-11.3192
▁Las	-11.3194
▁mittler	-11.3195
▁Wissen	-11.3196
ious	-11.3197
un	-11.3211
ilot	-11.3214
punkt	-11.3217
▁Second	-11.3217
▁Dokumente	-11.3219
▁Bevor	-11.3221
▁exact	-11.3221
▁Jugend	-11.3223
dienst	-11.3223
rmed	-11.3223
Verschlechterung	-11.3223
▁Beurteilung	-11.3223
▁Bewußtsein	-11.3223
▁Diamantopoulou	-11.3223
▁Désir	-11.3223
▁Erneuerung	-11.3223
▁Gremien	-11.3223
▁Otherwise	-11.3223
▁Schreyer	-11.3223
▁bedaure	-11.3223
▁beeinträchtigen	-11.3223
▁communautaire	-11.3223
▁controversial	-11.3223
▁hitherto	-11.3223
▁silence	-11.3223
▁profound	-11.3223
▁Vordergrund	-11.3223
▁multiannual	-11.3223
▁sudden	-11.3223
▁verschoben	-11.3223
▁Labour	-11.3223
▁possibilities	-11.3223
▁Planeten	-11.3223
▁revenue	-11.3224
▁gebraucht	-11.3224
▁destruction	-11.3224
▁substantive	-11.3224
▁essence	-11.3224
▁collaboration	-11.3224
▁Bedrohung	-11.3224
▁faith	-11.3224
▁Rahmenbeschluß	-11.3224
▁Vision	-11.3224
▁copyright	-11.3224
▁Thematik	-11.3224
▁investieren	-11.3224
▁Mitgefühl	-11.3224
▁Lama	-11.3224
▁Pact	-11.3224
▁Pack	-11.3224
▁imstande	-11.3224
▁stringent	-11.3224
▁Verfolgung	-11.3224
▁Cooperation	-11.3224
▁Eurojust	-11.3224
▁überwachen	-11.3224
▁unrealistic	-11.3224
▁zugänglich	-11.3224
▁Rechtsrahmen	-11.3224
▁Wortlaut	-11.3224
▁Erfassung	-11.3224
▁gefährden	-11.3225
▁mangelt	-11.3225
▁erfreut	-11.3225
▁Aussicht	-11.3225
▁Jean	-11.3225
▁ausgelöst	-11.3225
▁disagreement	-11.3225
▁Drittel	-11.3225
▁emissions	-11.3226
▁summer	-11.3226
▁Arbeitsweise	-11.3227
▁einschlägige	-11.3227
▁centralised	-11.3227
▁ausgeführt	-11.3227
▁statistics	-11.3227
▁Quelle	-11.3227
▁Confedera	-11.3227
▁cold	-11.3227
(1998)	-11.3227
▁Armenia	-11.3228
bruch	-11.3229
▁desirable	-11.3229
▁disadvantaged	-11.323
▁gewähren	-11.323
▁classification	-11.3231
▁Paris	-11.3231
▁zugestimmt	-11.3231
▁Dossier	-11.3232
▁Häfen	-11.3232
▁Betrügereien	-11.3232
▁Gil	-11.3233
▁Übergang	-11.3233
▁aufgebaut	-11.3233
▁Operation	-11.3233
▁bewegt	-11.3233
▁rejection	-11.3233
▁deeply	-11.3234
▁acceptance	-11.3235
▁raising	-11.3236
▁genuinely	-11.3238
▁Ermittlungen	-11.3239
▁einbringen	-11.324
▁bezahlt	-11.3241
▁Fischfang	-11.3242
▁Angehörige	-11.3242
▁erlassen	-11.3243
▁delivered	-11.3243
▁refused	-11.3244
▁efficiently	-11.3245
tagung	-11.3245
▁quoted	-11.3247
▁drängen	-11.3247
▁wake	-11.3247
▁departments	-11.3248
▁operating	-11.325
▁acknowledged	-11.325
▁wählen	-11.3251
▁heißen	-11.3251
▁fairly	-11.3252
▁Kambodscha	-11.3253
▁stützt	-11.3253
▁Forum	-11.3255
▁44	-11.3255
▁Nachfrage	-11.3257
▁pursued	-11.3258
▁productive	-11.3258
continuation	-11.326
▁desired	-11.326
▁front	-11.3261
Rechtsvorschrift	-11.3263
▁Verzögerungen	-11.3263
▁valuable	-11.3265
▁BIP	-11.3266
▁sums	-11.3267
▁declare	-11.3267
▁friends	-11.327
▁constitutional	-11.3271
▁resolv	-11.3277
▁wann	-11.3279
▁powerful	-11.3279
▁catastrophe	-11.3281
▁owners	-11.3282
▁Prozesses	-11.3282
bestände	-11.3284
▁cent	-11.3284
▁speeches	-11.3284
▁Nein	-11.3286
▁Flüchtlings	-11.329
▁passing	-11.3291
▁End	-11.3292
▁listening	-11.3294
▁Internationale	-11.3295
▁Aussagen	-11.3296
▁geographischen	-11.3296
▁stay	-11.3296
▁users	-11.3299
icherheit	-11.33
igkeit	-11.3301
sstrukturen	-11.3302
▁battle	-11.3307
▁begründet	-11.3311
▁preparations	-11.3312
▁attacks	-11.3312
▁tritt	-11.3313
▁Fort	-11.3314
▁treat	-11.3315
sverletzungen	-11.3316
▁accidents	-11.3318
▁Raumes	-11.3322
▁Randz	-11.3323
▁angestrebt	-11.3328
▁Schulung	-11.3329
▁Straßen	-11.3335
länder	-11.3338
▁ha	-11.3338
▁outline	-11.3341
▁Beide	-11.3342
▁gelegt	-11.3343
▁Fristen	-11.3347
▁demonstrates	-11.3348
▁Americans	-11.3354
▁depth	-11.3361
▁hide	-11.3361
▁laufen	-11.3365
▁integrierte	-11.3365
uß	-11.3371
dium	-11.3374
▁Mitgliedstaates	-11.3375
räume	-11.3382
▁ausgestattet	-11.3384
▁Jac	-11.3384
▁Vorsicht	-11.3386
wirklich	-11.3386
decentralisation	-11.339
▁mentioning	-11.3391
F	-11.3394
▁modified	-11.3396
▁consolidate	-11.3405
▁hervorragend	-11.3414
▁facto	-11.3419
fordere	-11.3424
▁Syrian	-11.343
bar	-11.3438
▁einge	-11.3442
low	-11.3449
▁biologische	-11.3453
▁Schlüssel	-11.3457
ility	-11.3469
▁initiate	-11.347
▁mis	-11.3479
▁resign	-11.3481
G	-11.3482
▁organise	-11.3486
gang	-11.3487
▁Rech	-11.3489
▁eventuelle	-11.349
▁Zyperns	-11.349
▁recognises	-11.3499
▁militärisch	-11.3507
j	-11.3509
▁angekündigte	-11.3509
▁references	-11.3514
▁fisc	-11.3519
ac	-11.3521
ble	-11.3528
liegenden	-11.353
▁Schiffen	-11.3531
▁nützlich	-11.3545
▁carri	-11.3547
▁worrie	-11.3555
freiheit	-11.3557
▁Leistung	-11.3565
▁dauerhaft	-11.3578
▁ausreichen	-11.3579
▁2.	-11.3588
▁Grundprinzip	-11.359
led	-11.3591
tät	-11.3596
▁ehrgeizig	-11.3597
▁Stärke	-11.3599
▁weite	-11.3601
vorschlag	-11.3603
▁intensiv	-11.3605
enfeindlichkeit	-11.3605
▁Sch	-11.361
▁regulator	-11.3616
▁places	-11.3618
▁juristisch	-11.3624
▁komplizierte	-11.363
▁farm	-11.364
plan	-11.3641
rous	-11.3645
▁diesbezügliche	-11.3646
Länder	-11.3649
Europe	-11.3656
▁bestimmen	-11.366
▁symbol	-11.3666
wirtschaftliche	-11.3671
▁Auffassungen	-11.368
▁Antworten	-11.3684
▁strikt	-11.3686
ent	-11.3689
▁Einer	-11.3695
▁11.	-11.3706
onetary	-11.3728
man	-11.373
IT	-11.3733
gegeben	-11.3739
▁Kriegs	-11.3741
▁approv	-11.3741
▁Regier	-11.3742
borne	-11.3742
▁kennt	-11.3748
▁Presidents	-11.3752
oth	-11.3754
ollbeschäftigung	-11.3755
spread	-11.3764
▁bereiten	-11.3765
polluter	-11.3769
▁Fahrzeug	-11.3772
am	-11.3773
▁bank	-11.3775
▁Reise	-11.3778
▁Transfers	-11.3786
▁Werk	-11.3787
▁Freiheitliche	-11.3793
▁1997.	-11.3796
▁Kurs	-11.3807
aring	-11.381
ären	-11.381
▁harmonis	-11.3812
▁Spar	-11.3816
▁Wahr	-11.3816
▁Erwägung	-11.3819
I	-11.3821
▁ange	-11.3821
▁erkannt	-11.3822
▁überzeugende	-11.3827
stellen	-11.3829
▁Sardellen	-11.3831
normen	-11.3833
▁moral	-11.3834
▁lobby	-11.3835
schreitenden	-11.3836
▁Arbeitskräfte	-11.3837
▁Vorsitzende	-11.3837
▁Gedanke	-11.3837
ification	-11.3838
▁übermittelt	-11.3838
▁weise	-11.3841
▁Gewinne	-11.3843
▁vertrete	-11.3844
▁Wähler	-11.3845
▁Konflikte	-11.3847
▁tight	-11.3848
▁vi	-11.3851
▁credit	-11.3853
▁zitiere	-11.3853
▁Übernahme	-11.3856
▁Ausschüsse	-11.3857
▁Umstände	-11.3857
▁Tragödie	-11.3858
▁betone	-11.386
▁qualitative	-11.3865
▁arrive	-11.3867
▁strukturelle	-11.387
▁mass	-11.3873
▁verweise	-11.3874
▁solid	-11.3875
▁aufrichtig	-11.3878
▁space	-11.3878
▁hospital	-11.3878
▁150	-11.388
rundrechtscharta	-11.388
▁Null	-11.3883
▁Monopole	-11.3883
▁journalist	-11.3884
▁Bedingung	-11.3884
▁channel	-11.3884
▁affair	-11.3884
▁mechanism	-11.3886
▁Gremium	-11.3889
▁negotiation	-11.3892
▁recognis	-11.3893
▁halbe	-11.3895
▁ga	-11.3899
▁minute	-11.3905
achtung	-11.3908
▁Konvention	-11.3912
▁Schuld	-11.3913
000	-11.3913
▁inne	-11.3914
enz	-11.3916
ig	-11.3916
▁capita	-11.3918
▁Regime	-11.392
▁weakness	-11.3924
▁Profit	-11.393
▁unanimous	-11.3931
betracht	-11.3936
▁town	-11.3937
▁drastic	-11.3937
▁exploit	-11.3937
▁Boyne	-11.3938
▁Hitler	-11.3938
▁Südosteuropa	-11.3938
Plath	-11.3938
▁ABB	-11.3938
▁Akzeptanz	-11.3938
▁Aufschwung	-11.3938
▁Beantwortung	-11.3938
▁Bemühen	-11.3938
▁Caribbean	-11.3938
▁Cusí	-11.3938
▁Erleichterung	-11.3938
▁Khmer	-11.3938
▁Kluft	-11.3938
▁London	-11.3938
▁MacCormick	-11.3938
▁Morgantini	-11.3938
▁Napolitano	-11.3938
▁Osteuropa	-11.3938
▁Posselt	-11.3938
▁Sjöstedt	-11.3938
▁Tragweite	-11.3938
▁Verhinderung	-11.3938
▁applause	-11.3938
▁beeinflussen	-11.3938
▁gefragt	-11.3938
▁inequalities	-11.3938
▁nachvollziehen	-11.3938
▁nördliche	-11.3938
▁respektiert	-11.3938
▁unprecedented	-11.3938
▁uranium	-11.3938
▁vigilant	-11.3938
Unzulänglichkeit	-11.3938
▁coexistence	-11.3938
▁drastisch	-11.3938
▁Meeresumwelt	-11.3938
▁Please	-11.3938
▁TACIS	-11.3938
▁aufzubauen	-11.3938
▁beibehalten	-11.3938
▁mandatory	-11.3938
▁hazardous	-11.3938
▁legitimacy	-11.3938
▁ratification	-11.3938
▁variety	-11.3938
▁gekennzeichnet	-11.3938
▁gewahrt	-11.3938
▁Ankündigung	-11.3938
▁mismanagement	-11.3938
▁hochrangige	-11.3938
▁Finanzrahmen	-11.3938
▁Einberufung	-11.3938
▁citizenship	-11.3938
▁automatically	-11.3938
▁1244	-11.3938
▁Moura	-11.3938
▁confront	-11.3938
▁mobility	-11.3938
▁verhandelt	-11.3938
▁1967	-11.3938
▁vermitteln	-11.3938
▁Bestrebungen	-11.3938
▁Sozialfonds	-11.3938
▁Zusammensetzung	-11.3938
▁Belastung	-11.3938
▁Ahern	-11.3938
▁Sommer	-11.3938
▁transferred	-11.3938
▁compliment	-11.3938
▁everywhere	-11.3938
7(	-11.3938
▁consolidation	-11.3938
▁black	-11.3939
▁wahrnehmen	-11.3939
▁likewise	-11.3939
▁zurückkommen	-11.3939
▁Arbeitszeit	-11.3939
▁stopped	-11.3939
▁40%	-11.394
▁49	-11.394
)]	-11.394
▁anywhere	-11.394
▁consequently	-11.394
▁expense	-11.394
▁Quästoren	-11.394
▁Naturally	-11.394
▁definieren	-11.3941
▁simplify	-11.3941
▁Norwegen	-11.3941
▁assistants	-11.3941
▁repair	-11.3941
▁transnationale	-11.3941
▁begegnen	-11.3942
▁eingetreten	-11.3942
▁erhielt	-11.3942
▁eingerichtet	-11.3942
▁saw	-11.3942
▁interpreted	-11.3943
▁garantiert	-11.3943
▁geraten	-11.3943
▁schenken	-11.3943
zuführen	-11.3943
Krisenmanagement	-11.3943
▁imbalance	-11.3943
▁warmly	-11.3943
▁Ladies	-11.3943
▁slightly	-11.3944
▁einzugehen	-11.3944
▁finish	-11.3947
▁flexibel	-11.3947
▁availability	-11.3947
▁footing	-11.3947
▁geblieben	-11.3947
▁leav	-11.3948
▁slight	-11.3948
▁fresh	-11.3948
▁districts	-11.3948
▁Anschluß	-11.3948
▁kritisieren	-11.3948
▁limitations	-11.3948
▁gestrige	-11.3949
▁track	-11.3949
▁aussehen	-11.3949
▁25%	-11.3949
▁überdenken	-11.3949
▁integrating	-11.3949
▁accessible	-11.395
▁gezahlt	-11.395
▁Subventionen	-11.3951
▁158	-11.3951
▁Finanzielle	-11.3952
▁enhanced	-11.3952
▁berufliche	-11.3953
ien	-11.3953
▁stipulates	-11.3953
▁stable	-11.3953
▁Erscheinung	-11.3953
▁cast	-11.3954
▁angesehen	-11.3954
▁bedanken	-11.3955
▁aquaculture	-11.3956
▁Bedauern	-11.3956
▁Rückga	-11.3957
▁hingegen	-11.3958
▁befürwortet	-11.3958
▁Detail	-11.3959
▁objections	-11.396
▁formally	-11.396
▁province	-11.396
▁officers	-11.396
▁united	-11.3961
▁statute	-11.3962
▁Büro	-11.3962
achtet	-11.3962
▁Fang	-11.3963
▁Neben	-11.3963
▁perceive	-11.3965
▁begründen	-11.3965
▁gebildet	-11.3967
▁integrate	-11.3968
▁election	-11.3968
▁Anmerkungen	-11.3968
▁story	-11.3969
▁promises	-11.3969
▁erforderliche	-11.3969
▁gewinnen	-11.397
▁managers	-11.3971
▁eyes	-11.3972
▁exploitation	-11.3972
▁testing	-11.3973
▁offered	-11.3973
▁minimis	-11.3975
▁Konsequenzen	-11.3976
▁Billigflaggen	-11.3978
▁Defizite	-11.3981
▁undergo	-11.3982
▁bedenken	-11.3982
▁lesen	-11.3983
ques	-11.3984
▁piece	-11.3984
▁accordingly	-11.3987
▁channels	-11.3992
haften	-11.3993
regelung	-11.3993
developed	-11.3993
▁Erwägungen	-11.3993
▁derjenigen	-11.3996
▁Ar	-11.3996
▁integral	-11.3999
▁Arbeitsplatz	-11.4001
▁entails	-11.4007
▁zuständige	-11.401
▁Vereinigung	-11.4011
▁settlements	-11.4013
▁investigations	-11.4017
▁experienced	-11.4017
▁moved	-11.4018
▁Produktions	-11.4019
ranging	-11.4019
▁jahrelang	-11.4023
▁konkreter	-11.4024
▁welch	-11.4026
▁Mißbrauch	-11.4026
▁gesetzlichen	-11.4031
▁bestehend	-11.4032
ose	-11.4032
▁anstehende	-11.4033
▁sprachen	-11.4033
▁depends	-11.4034
▁regrettabl	-11.4037
▁differently	-11.4038
▁telling	-11.404
▁Interventionen	-11.4041
▁breiten	-11.4042
▁verpflichten	-11.4043
▁inspections	-11.4049
▁schlicht	-11.4051
▁positively	-11.4052
▁suggests	-11.4053
ompetition	-11.4055
▁Koalition	-11.4057
▁elektronische	-11.4058
▁technischer	-11.4058
▁Prozent	-11.4058
ndependent	-11.4059
▁reconsider	-11.4064
▁claims	-11.4072
▁zahlreicher	-11.4074
▁junge	-11.4078
▁internationally	-11.4078
▁gear	-11.4079
▁formed	-11.4085
connected	-11.4086
▁Leitung	-11.4087
▁Tanker	-11.409
▁historical	-11.4091
▁impos	-11.4091
▁decent	-11.4098
▁1999/212	-11.41
stieg	-11.4105
▁unity	-11.4113
▁length	-11.4117
▁Konflikten	-11.4117
▁jährlichen	-11.4118
▁abuse	-11.412
▁Schiene	-11.4122
▁settle	-11.4123
▁Darau	-11.4127
ewirtschaftung	-11.413
ängst	-11.4134
beit	-11.4134
ehr	-11.4135
▁deutlicher	-11.4139
abled	-11.4139
▁rapporteurs	-11.4151
▁Demokratische	-11.4152
▁historisch	-11.4155
verständlich	-11.4163
▁effektiven	-11.4167
▁unklar	-11.4169
Sachverständiger	-11.4169
▁vorgelegte	-11.418
▁aufzu	-11.4185
▁reconcile	-11.4188
▁covers	-11.4194
▁Amts	-11.42
▁vorgestellt	-11.4201
wirken	-11.4202
vis	-11.4204
▁Entwurfs	-11.4205
▁organis	-11.4205
srecht	-11.4208
▁prosper	-11.4208
▁Letzt	-11.4209
rseits	-11.4213
▁vollständigen	-11.4219
stätigkeit	-11.4219
versorgung	-11.4219
▁movements	-11.4224
▁congratulat	-11.4228
artige	-11.4231
▁scarce	-11.4242
▁Weißbuchs	-11.4252
▁horizontal	-11.4254
▁prime	-11.4255
▁Lebensmittels	-11.4257
wide	-11.4257
▁poore	-11.4258
▁existierende	-11.426
▁tatsächliche	-11.4266
▁6,	-11.4272
ij	-11.4276
▁eingehend	-11.4283
▁Under	-11.4294
▁regulat	-11.4296
▁täglich	-11.4296
▁bloß	-11.4297
▁anerkennen	-11.4298
▁aufgeworfen	-11.4299
▁euros	-11.43
▁Dokumenten	-11.4301
ated	-11.4302
▁Verbrechens	-11.4306
▁Bern	-11.4307
▁allmählich	-11.4308
erseits	-11.431
▁rassistische	-11.4313
▁Verantwort	-11.4318
sbestimmungen	-11.4321
▁items	-11.4325
▁Fünf	-11.4327
▁verfahren	-11.4327
▁Volks	-11.4337
▁inappropriate	-11.4344
▁applications	-11.4351
ine	-11.4353
gegenwärtigen	-11.4355
▁abzu	-11.436
▁Präs	-11.436
▁logical	-11.4362
election	-11.4364
▁Hoh	-11.4364
▁insufficient	-11.4365
▁African	-11.4382
4/1999	-11.4389
licate	-11.4393
▁definitions	-11.4396
rum	-11.4408
▁9.	-11.4409
▁zusätzlich	-11.4414
anlagen	-11.4418
▁befindliche	-11.4421
▁Zoll	-11.4422
▁herrschende	-11.4424
▁skill	-11.4426
▁üblich	-11.4446
▁partner	-11.4449
▁Entscheidungs	-11.4459
right	-11.4497
country	-11.4498
▁spekulative	-11.4501
vier	-11.4502
▁Who	-11.4508
▁einzig	-11.4516
▁9,	-11.4538
▁Rechtsakte	-11.4543
▁concer	-11.4546
▁Israels	-11.4558
erely	-11.456
known	-11.4564
▁Iris	-11.4567
mus	-11.4575
▁bezeichnen	-11.4575
status	-11.4578
▁koordiniert	-11.4579
▁laut	-11.4585
ure	-11.4587
▁Beihilfe	-11.459
▁br	-11.4592
▁Opposition	-11.4593
▁solch	-11.4595
▁Have	-11.4596
▁86	-11.4596
▁interregionale	-11.4599
▁tiefe	-11.4602
▁Beamte	-11.4603
strukturen	-11.4608
▁Küste	-11.4616
▁Palästinenser	-11.4619
skosten	-11.4619
▁react	-11.462
▁Asylbewerber	-11.4622
▁Grundwerte	-11.4622
▁Anleger	-11.4624
▁Tür	-11.4626
▁Aussage	-11.4626
▁städtische	-11.4626
▁argue	-11.4626
▁Albania	-11.4626
▁gemeinschaft	-11.4627
▁illustrate	-11.4628
▁brachte	-11.4629
▁strenge	-11.463
ressourcen	-11.4631
▁dänische	-11.4635
▁ceiling	-11.4645
▁prerequisite	-11.4645
▁friend	-11.4646
▁Register	-11.4647
▁Hinzu	-11.4649
▁interception	-11.4649
▁Inkohärenz	-11.465
▁Gebrauch	-11.4652
▁protocol	-11.4652
▁dynamic	-11.4652
▁Überlegung	-11.4653
▁enterprise	-11.4654
▁consult	-11.4655
ökonomische	-11.4655
▁immigrant	-11.4656
▁Orientierung	-11.4661
▁tradition	-11.4662
▁Mandat	-11.4663
▁vorrangige	-11.4664
teigerung	-11.4664
▁employee	-11.4665
▁systematic	-11.4667
▁warm	-11.4669
▁außergewöhnlich	-11.4671
▁Act	-11.4674
▁demonstration	-11.4676
▁Zuge	-11.4677
▁asset	-11.468
▁Inflation	-11.4686
2/1999	-11.4687
▁überarbeitet	-11.4696
▁Straf	-11.4697
▁verheerende	-11.47
▁abolish	-11.4702
▁Telefon	-11.4705
▁Amerika	-11.4706
Robles	-11.4707
à	-11.4707
▁Albanien	-11.4707
▁Graç	-11.4707
▁Lucas	-11.4707
▁Protocol	-11.4707
▁Strafverfolgung	-11.4707
▁Wednesday	-11.4707
▁accurate	-11.4707
▁anerkennt	-11.4707
▁currencies	-11.4707
▁enshrine	-11.4707
▁impetus	-11.4707
▁inakzeptabel	-11.4707
▁konfrontiert	-11.4707
▁ratifiziert	-11.4707
▁öffnen	-11.4707
▁überwunden	-11.4707
ential	-11.4707
▁Amado	-11.4707
▁Amoco	-11.4707
▁grass	-11.4707
▁liefert	-11.4707
▁vermittelt	-11.4707
▁verringert	-11.4707
▁Symbol	-11.4707
▁residence	-11.4707
▁untersucht	-11.4707
▁Bewohner	-11.4707
▁irgendwelche	-11.4707
▁rhetoric	-11.4707
▁securities	-11.4707
▁Investmentfonds	-11.4707
▁Stellenwert	-11.4707
▁gewidmet	-11.4707
▁1991	-11.4707
▁retirement	-11.4707
▁quantity	-11.4707
▁revolution	-11.4707
▁Karl	-11.4707
▁Norway	-11.4707
▁corpus	-11.4707
▁Schulz	-11.4707
▁11.30	-11.4707
▁Beschlußfassung	-11.4707
▁appalling	-11.4707
▁Einmischung	-11.4707
▁ideology	-11.4707
▁ESF	-11.4707
▁hervorgeht	-11.4707
▁comparable	-11.4707
▁facility	-11.4707
▁guidance	-11.4707
▁survey	-11.4708
▁regeneration	-11.4708
▁clarified	-11.4708
▁einbeziehen	-11.4708
▁Eingreifen	-11.4708
▁civilisation	-11.4708
▁UEN	-11.4708
▁UNO	-11.4708
▁Realisierung	-11.4708
▁Immigranten	-11.4708
▁versteht	-11.4708
▁erlaubt	-11.4709
▁Agrarpolitik	-11.4709
▁submitting	-11.4709
▁Haushaltsplan	-11.4709
▁Siedlungen	-11.4709
▁Indonesien	-11.4709
▁extraordinary	-11.4709
▁ausgearbeitet	-11.4709
▁Hence	-11.4709
▁Arbeitsprogramm	-11.471
▁display	-11.471
▁Armenien	-11.471
▁swiftly	-11.471
▁überprüfen	-11.471
▁accountability	-11.471
▁outstanding	-11.471
▁Third	-11.4711
▁Altener	-11.4711
▁Jahrzehnte	-11.4711
▁appointed	-11.4711
▁compete	-11.4712
▁army	-11.4712
▁dumping	-11.4712
▁appointment	-11.4712
▁beklagen	-11.4712
▁berührt	-11.4712
▁kümmern	-11.4712
▁unterscheiden	-11.4712
▁severely	-11.4712
▁Uran	-11.4713
▁aufgegriffen	-11.4713
▁fixed	-11.4713
▁characteristic	-11.4713
▁Besonderheiten	-11.4714
▁Investitions	-11.4714
▁lowest	-11.4714
▁verhängt	-11.4714
▁watch	-11.4714
▁Steuerpolitik	-11.4715
▁scheinen	-11.4715
▁bewerten	-11.4715
▁dramatic	-11.4716
▁fördert	-11.4716
▁enttäuscht	-11.4716
▁Nachbarn	-11.4716
▁Beobachter	-11.4717
▁privatisation	-11.4717
▁genetisch	-11.4717
▁Bay	-11.4717
▁Obergrenze	-11.4717
▁Generationen	-11.4718
▁beitreten	-11.4718
▁cease	-11.4718
▁aufhören	-11.4719
▁Handelsabkommen	-11.4719
▁cleansing	-11.472
▁Haushaltsmittel	-11.472
▁beobachten	-11.472
▁fulfilled	-11.4721
▁profitieren	-11.4722
▁Entlassungen	-11.4723
▁Führer	-11.4723
▁zugesagt	-11.4725
▁adjustments	-11.4725
▁leistet	-11.4726
▁tender	-11.4726
▁Gewerkschaften	-11.4726
▁aufbauen	-11.4726
▁hilfreich	-11.4727
▁Rome	-11.4727
▁geschrieben	-11.4727
▁race	-11.4728
▁producers	-11.4728
▁bewahren	-11.4729
▁übergeben	-11.4729
ksamkeit	-11.473
▁Virus	-11.473
▁interference	-11.473
▁fand	-11.473
▁doubtless	-11.4731
▁obtained	-11.4735
▁westliche	-11.4736
▁Drogen	-11.4737
▁unmittelbare	-11.474
▁Wissens	-11.4741
▁expand	-11.4741
▁insecurity	-11.4743
Haushaltsordnung	-11.4743
▁peripheral	-11.4744
▁exercised	-11.4745
ot	-11.4747
▁wording	-11.4747
▁Vorteile	-11.4753
▁bestand	-11.4754
▁Thun	-11.4759
▁mix	-11.4759
▁traditions	-11.4763
▁knappen	-11.4772
▁harmonised	-11.4772
▁Assoziierungs	-11.4775
▁founded	-11.4775
▁rivers	-11.4778
▁Krankenhaus	-11.4779
▁features	-11.4783
▁hinder	-11.4784
▁contacts	-11.4784
▁indicates	-11.4786
▁contracts	-11.4789
▁dom	-11.4795
▁promoted	-11.4798
▁defending	-11.4801
▁caus	-11.4802
▁partial	-11.4803
▁drafted	-11.4804
▁survive	-11.4804
▁rassistischen	-11.4805
▁schlechte	-11.4806
▁häufiger	-11.4806
▁prevented	-11.4807
▁glaubwürdig	-11.4813
▁eingeräumt	-11.4814
▁Kontinents	-11.4814
▁öffentlicher	-11.4816
ige	-11.4816
▁observe	-11.4817
▁appellieren	-11.4819
▁Schwäche	-11.4822
▁season	-11.4824
came	-11.4825
▁door	-11.4825
▁Eröffnung	-11.483
▁Reaktionen	-11.4833
▁arrest	-11.4833
llowing	-11.4834
▁lebende	-11.4834
▁gemessen	-11.4836
bericht	-11.4837
▁Jugoslawiens	-11.484
▁eingereichten	-11.4848
▁erteilt	-11.485
▁Bra	-11.4858
▁stressing	-11.4859
▁Weitere	-11.486
▁functions	-11.4863
igned	-11.4868
▁Heranführungs	-11.487
▁vari	-11.4873
▁externe	-11.4874
▁Beweise	-11.4877
▁komplizierten	-11.4877
indung	-11.4884
▁Holz	-11.4884
▁vage	-11.4889
▁Forschungs	-11.4892
▁conferences	-11.4893
▁Belgrade	-11.4897
ood	-11.4898
ken	-11.4902
▁approaches	-11.4903
lichkeiten	-11.4909
ere	-11.492
▁roads	-11.4925
systematically	-11.4926
ual	-11.4929
▁lie	-11.4932
▁principal	-11.4933
▁fisher	-11.4937
▁ungefähr	-11.4943
▁delays	-11.4944
▁umfassender	-11.4947
▁Dala	-11.4948
ling	-11.4953
▁thoughts	-11.4961
▁dürften	-11.4964
);	-11.4971
▁umgekehrt	-11.4977
▁ehrlich	-11.4982
▁korrekte	-11.4982
▁Politikbereiche	-11.4986
katastrophen	-11.4986
▁preserv	-11.499
▁Stoffen	-11.4995
smal	-11.4996
▁irgendein	-11.4998
▁Handlung	-11.4999
▁übermäßig	-11.4999
▁Wor	-11.5005
▁contents	-11.5008
förderung	-11.5009
behörden	-11.5013
▁rasche	-11.5014
scheinend	-11.5019
▁umweltpolitisch	-11.5019
▁Ei	-11.502
▁concentrat	-11.5025
▁multinational	-11.5027
▁accuse	-11.5027
4(	-11.5036
▁bezogen	-11.5036
▁Verweis	-11.5042
ebene	-11.5043
katastrophe	-11.5043
▁strike	-11.5047
▁schedule	-11.5053
▁offizielle	-11.5058
icht	-11.507
wesen	-11.5072
▁Regel	-11.5072
▁widersprüchlich	-11.5073
▁emotional	-11.5077
▁Centr	-11.5078
▁Ost	-11.5086
▁rationale	-11.5087
▁attract	-11.5105
eswegen	-11.5109
▁ökonomische	-11.5116
▁weltweite	-11.5117
for	-11.5119
vielfach	-11.5132
ell	-11.5137
▁tägliche	-11.5139
▁Ri	-11.5139
▁heikle	-11.5147
lehnt	-11.5147
▁inwie	-11.5149
▁privilege	-11.5152
▁Ressource	-11.5152
▁ill	-11.5156
▁unterliegen	-11.516
▁rely	-11.5161
schaffung	-11.5165
dominant	-11.517
▁Ebenen	-11.5181
gleichberechtigt	-11.5184
wesenheit	-11.5185
verordnung	-11.5187
ending	-11.5187
▁Quote	-11.5191
▁Arab	-11.52
▁7.	-11.5204
▁geeignet	-11.5204
rate	-11.5205
▁Devisen	-11.5208
ward	-11.5208
▁answers	-11.5222
▁na	-11.5231
▁Verkauf	-11.5235
▁Dringlichkeit	-11.5245
nten	-11.5246
undamental	-11.525
sverfahrens	-11.5253
europäischen	-11.5263
▁albanische	-11.5273
Mitgliedstaaten	-11.5274
▁Finn	-11.5275
▁flexibler	-11.5283
struktur	-11.5284
▁effektiver	-11.5284
sbekämpfung	-11.5287
light	-11.5293
▁vereinbar	-11.5297
▁communications	-11.5297
bedarf	-11.5306
▁periodic	-11.5307
▁Wi	-11.5313
sgruppe	-11.5319
▁Zwischen	-11.532
▁Stellungnahmen	-11.5322
▁schreckliche	-11.533
ut	-11.5346
▁entschlossene	-11.5348
estatten	-11.5355
▁opt	-11.5355
▁Feind	-11.536
setzen	-11.5361
position	-11.5363
▁Ro	-11.5364
achten	-11.5365
▁accepts	-11.5367
depth	-11.537
▁südliche	-11.5384
sion	-11.5385
sgesellschaft	-11.5389
regierung	-11.5409
▁Alter	-11.5409
▁Zei	-11.5411
rechtliche	-11.5416
▁stehe	-11.5417
so	-11.5425
▁gesunde	-11.5427
pecial	-11.5427
▁Seele	-11.5431
Vertrags	-11.5437
▁Blickwinkel	-11.5439
▁Staatsangehörig	-11.5443
▁fr	-11.5447
▁pleas	-11.5448
▁select	-11.5449
▁Hab	-11.5449
▁Follow	-11.5451
▁Noch	-11.5451
body	-11.5456
ssysteme	-11.5458
▁Linke	-11.5459
▁höre	-11.5464
läßlich	-11.5467
6/1999	-11.5472
▁wreck	-11.5473
▁gesetzliche	-11.5475
▁prejudice	-11.5478
▁Ausstellung	-11.5483
▁Wortmeldung	-11.5485
▁planet	-11.5485
▁component	-11.5486
▁Kosovar	-11.5486
▁foundation	-11.5488
▁donor	-11.549
▁payment	-11.5491
▁niedrig	-11.5491
▁achievement	-11.5493
▁Jahrtausend	-11.5494
▁suit	-11.5501
▁Bewegung	-11.5503
▁Betriebe	-11.5505
▁umfassen	-11.5506
ei	-11.5509
▁behindert	-11.5509
eduzierung	-11.551
ende	-11.5512
Abkommens	-11.5512
ding	-11.5514
▁dieselbe	-11.5514
▁erfolgte	-11.5515
▁attach	-11.5517
▁ausführliche	-11.5523
▁embargo	-11.5523
▁divide	-11.5527
▁convince	-11.553
▁sentence	-11.553
▁tabl	-11.5531
P	-11.5532
lösung	-11.5539
▁reibungslose	-11.5539
5-001	-11.554
▁effizient	-11.554
▁Früh	-11.554
▁Premier	-11.554
▁Gaza	-11.554
▁Nuklear	-11.554
▁Sturm	-11.554
Komplementarität	-11.554
Veröffentlichung	-11.554
▁90/220	-11.554
▁Ankara	-11.554
▁Bourlanges	-11.554
▁Cisterna	-11.554
▁Demontage	-11.554
▁Gasòliba	-11.554
▁Genugtuung	-11.554
▁Hatzidakis	-11.554
▁Indikator	-11.554
▁Mittwoch	-11.554
▁Namibia	-11.554
▁Nonetheless	-11.554
▁Obviously	-11.554
▁Petersberg	-11.554
▁Tsatsos	-11.554
▁UNITA	-11.554
▁Vallelersundi	-11.554
▁Vendée	-11.554
▁Zerstörung	-11.554
▁gäbe	-11.554
▁harbour	-11.554
▁orientieren	-11.554
▁plötzlich	-11.554
▁trouble	-11.554
▁Friday	-11.554
▁Oslo	-11.554
▁Solbes	-11.554
▁imperative	-11.554
▁macro	-11.554
▁relevance	-11.554
▁Cadiz	-11.554
▁einzurichten	-11.554
▁energisch	-11.554
▁gentechnisch	-11.554
▁straight	-11.554
▁vermieden	-11.554
▁premature	-11.554
▁productivity	-11.554
▁veranlassen	-11.554
▁leadership	-11.554
▁abzuschließen	-11.554
▁Atlantik	-11.554
▁beneficial	-11.554
▁1988	-11.554
▁altogether	-11.554
▁basiert	-11.554
▁schweigen	-11.554
▁widerspiegelt	-11.554
▁Gipfeltreffen	-11.554
▁Dynamik	-11.5541
▁confidentiality	-11.5541
▁BBC	-11.5541
▁Soforthilfe	-11.5541
▁proactive	-11.5541
▁Heimatland	-11.5541
▁Haushaltsjahr	-11.5541
▁pretext	-11.5541
▁bereitzustellen	-11.5541
▁composition	-11.5541
▁Bonde	-11.5541
▁Kette	-11.5541
▁Vereinfachung	-11.5541
▁Staatsführung	-11.5541
▁Front	-11.5541
▁Bestreben	-11.5541
▁tagtäglich	-11.5541
▁preferred	-11.5541
▁Amerikaner	-11.5541
▁USD	-11.5541
▁Schlag	-11.5541
▁Ausgangspunkt	-11.5541
▁Morgan	-11.5541
▁erweist	-11.5541
▁foreseeable	-11.5541
▁percentage	-11.5541
▁harmonious	-11.5541
▁problematisch	-11.5541
▁supplies	-11.5541
▁wholeheartedly	-11.5541
▁dargestellt	-11.5541
▁Aktionspläne	-11.5541
▁aktuelle	-11.5541
▁Gleichheit	-11.5542
▁Rücknahme	-11.5542
▁2004	-11.5542
▁everybody	-11.5542
▁fleet	-11.5542
▁anxious	-11.5542
▁Entschuldigung	-11.5542
▁Reformprozeß	-11.5542
▁Proposal	-11.5542
▁verschaffen	-11.5543
▁Abänderungsantr	-11.5543
▁vorsieht	-11.5543
▁troops	-11.5543
▁indicators	-11.5543
▁gehandelt	-11.5543
▁verschwinden	-11.5544
▁vorzugehen	-11.5544
▁Einigkeit	-11.5544
produktion	-11.5544
▁Rentner	-11.5544
▁gründet	-11.5544
▁Niemand	-11.5544
▁metals	-11.5544
▁Kompromisse	-11.5544
▁aufgerufen	-11.5545
▁bewirkt	-11.5545
▁permitted	-11.5545
▁plus	-11.5545
▁beginnt	-11.5545
cumbe	-11.5545
▁remarkable	-11.5546
▁convey	-11.5546
▁Einnahmen	-11.5547
▁Great	-11.5547
▁zustande	-11.5547
▁Force	-11.5547
▁genießen	-11.5548
▁Viertens	-11.5548
▁herausstellen	-11.5548
▁Entsendung	-11.5549
bewirtschaftung	-11.555
▁surprised	-11.555
▁errichten	-11.555
▁benutzen	-11.555
▁Fakten	-11.555
▁isolated	-11.555
▁catches	-11.555
▁reserved	-11.555
▁remove	-11.555
▁Bosnien	-11.5551
▁Kampagne	-11.5551
▁Satz	-11.5551
▁eradication	-11.5551
▁underlined	-11.5551
▁steuerliche	-11.5552
▁incoherence	-11.5553
▁bekräftigen	-11.5553
▁master	-11.5553
▁geringsten	-11.5553
▁instability	-11.5553
▁Strukturpolitik	-11.5554
zeitigen	-11.5554
▁attentive	-11.5555
▁Soweit	-11.5555
▁dahin	-11.5556
▁abwarten	-11.5556
▁breite	-11.5557
▁quarters	-11.5557
▁mine	-11.5557
▁erbringen	-11.5557
▁employers	-11.5558
▁Fusionen	-11.5558
▁Action	-11.5559
rischen	-11.556
▁Unfälle	-11.5561
▁fundierte	-11.5561
▁generations	-11.5561
▁Grenz	-11.5562
▁consistently	-11.5562
▁Tod	-11.5565
▁size	-11.5565
▁Ho	-11.5565
▁conducted	-11.5568
▁polluted	-11.5569
▁begrenzen	-11.557
▁einnehmen	-11.557
▁migration	-11.557
▁annually	-11.5571
▁trading	-11.5572
▁chosen	-11.5573
▁realised	-11.5573
▁empfohlen	-11.5573
kraft	-11.5575
▁lift	-11.5575
▁sozialistische	-11.5576
▁erfreulich	-11.5576
▁agieren	-11.5577
▁Departements	-11.5578
▁Streitkräfte	-11.558
▁avoided	-11.5581
▁favourable	-11.5581
▁reservations	-11.5581
▁Wäre	-11.5582
▁Finanzhilfe	-11.5582
▁repeated	-11.5583
bindung	-11.5584
▁render	-11.5584
▁odd	-11.5591
▁openly	-11.5591
▁freiwillig	-11.5594
▁moralische	-11.5594
▁entering	-11.5595
▁hart	-11.5596
▁dead	-11.5599
▁demonstrations	-11.56
▁arbeitet	-11.5601
▁vis	-11.5603
dienstleistungen	-11.5605
▁Maes	-11.5606
▁incidents	-11.5609
▁exemptions	-11.561
▁structured	-11.561
▁läuft	-11.5611
▁zones	-11.5611
▁Staatsanwalt	-11.5612
transaktionen	-11.5613
▁belongs	-11.5613
▁Alkohol	-11.5614
▁Kompetenzen	-11.5614
▁appropriately	-11.5617
▁jüngste	-11.5624
▁Big	-11.5626
▁Teilung	-11.5626
▁Rest	-11.5627
▁widen	-11.5628
▁ehe	-11.5632
spartnerschaften	-11.5632
▁r	-11.5638
betriebe	-11.5639
▁formula	-11.5643
▁sold	-11.5648
▁buy	-11.5651
▁zweifels	-11.5652
▁zügig	-11.5654
▁Je	-11.5656
▁roots	-11.5663
▁getrennt	-11.5664
▁declarations	-11.5667
▁3,	-11.567
▁verhalten	-11.567
▁Angebot	-11.5672
▁Besorgnisse	-11.5673
-078	-11.5674
▁bridge	-11.5674
▁signs	-11.5675
▁sections	-11.5675
▁instances	-11.5676
▁befürchten	-11.5679
verwaltung	-11.5681
▁Albaner	-11.5682
▁sinnvoller	-11.5682
▁posting	-11.5682
▁Fin	-11.5692
▁sichtbar	-11.5694
▁Kräften	-11.5695
▁kamen	-11.5696
▁diseases	-11.5697
▁Weiterbildung	-11.5697
▁zukünftig	-11.5703
▁volks	-11.5706
▁career	-11.5709
▁rebuild	-11.571
▁bigge	-11.5712
▁progressive	-11.5713
▁angemessener	-11.5714
▁Könnte	-11.5718
▁infrastructures	-11.572
▁Day	-11.5722
▁unrealistisch	-11.5725
▁arena	-11.5725
eseitig	-11.5725
▁teilt	-11.5731
▁Beitrittsländer	-11.5735
▁Pflichten	-11.5744
▁withdrawn	-11.5752
▁leiten	-11.5753
ulf	-11.5755
▁Partnerschaften	-11.5762
▁erweiterte	-11.5768
▁Parlamenten	-11.5768
▁unl	-11.5769
interessen	-11.5772
ntwicklungshilfe	-11.5772
▁forder	-11.5779
▁vorn	-11.5781
▁geographische	-11.5786
▁sum	-11.5788
▁lad	-11.58
▁root	-11.5801
ben	-11.5804
rechts	-11.5805
N	-11.5808
▁manag	-11.5818
▁unabl	-11.5822
▁befallen	-11.5825
▁rid	-11.5837
use	-11.5837
▁penal	-11.5839
▁mittel	-11.585
arbeit	-11.5852
▁Bereit	-11.5862
▁aufgeführt	-11.5865
▁Sant	-11.5867
▁blue	-11.5869
nkt	-11.5871
▁institutionell	-11.5871
▁kurzer	-11.5872
▁posts	-11.5872
▁Netze	-11.5875
▁tighten	-11.5879
sentscheidungen	-11.5889
▁ausgewogen	-11.589
▁ordnungsgemäß	-11.589
▁Le	-11.5894
▁Opfern	-11.5904
▁Appell	-11.5912
▁Instruments	-11.5913
heiten	-11.592
▁enger	-11.5923
▁par	-11.593
▁theory	-11.5942
▁owner	-11.5944
▁Arbeitslosen	-11.5948
▁gerechten	-11.5949
▁attain	-11.5951
vorhaben	-11.5957
militärische	-11.5958
▁timely	-11.5958
qualität	-11.596
▁Schutzgebiet	-11.596
▁verbreitet	-11.5962
ask	-11.5972
fully	-11.5984
▁Postdiensten	-11.5986
▁Unglück	-11.5988
weisung	-11.5991
▁Gelegenheiten	-11.5996
▁begangen	-11.6001
▁Rechtsetzung	-11.6002
ia	-11.6004
fälle	-11.6009
▁auseinandersetz	-11.601
▁zwingend	-11.601
▁jederzeit	-11.6044
▁drive	-11.6049
ique	-11.6084
▁perform	-11.6107
▁red	-11.6109
▁nieder	-11.6112
▁Militär	-11.6126
▁optim	-11.6126
▁jeopardise	-11.6129
▁basin	-11.6131
▁Ergebnissen	-11.6132
veryone	-11.6136
▁falsche	-11.6137
▁Freund	-11.6144
▁korrekt	-11.6151
▁Heimat	-11.616
▁führende	-11.6161
▁sitzen	-11.6168
▁54	-11.617
▁knapp	-11.6179
osen	-11.6181
▁Bekannt	-11.6183
▁Verantwortlich	-11.6185
▁owe	-11.6192
▁mortalit	-11.6198
▁presents	-11.6198
altung	-11.6207
▁oben	-11.6209
▁extremen	-11.621
▁gravierend	-11.6213
ck	-11.6219
▁Voll	-11.6222
▁herrschen	-11.6226
▁genügen	-11.6226
ohne	-11.6227
▁radikale	-11.6231
Freie	-11.6234
▁Wah	-11.6234
nish	-11.6235
potential	-11.6242
▁alt	-11.6247
atory	-11.6249
▁Zwecke	-11.6249
Programme	-11.6251
▁europaweit	-11.6255
verkehr	-11.6258
▁remark	-11.6258
rolle	-11.6261
▁forum	-11.6267
eign	-11.6275
▁earn	-11.6276
▁estimate	-11.6276
▁Sitz	-11.6276
▁besetzt	-11.6279
Christ	-11.628
ged	-11.6282
▁Vorgänge	-11.6295
▁broke	-11.6297
▁befürchte	-11.63
bestimmungen	-11.6304
▁Dara	-11.6307
geachtet	-11.6314
▁Sam	-11.6314
way	-11.6323
▁denounce	-11.6347
▁Havarie	-11.6348
▁aufkommen	-11.6349
▁18.	-11.635
licherweise	-11.6352
▁niederländische	-11.6354
merk	-11.6354
▁Andalusia	-11.6361
▁Erkenntnisse	-11.6363
▁Zusage	-11.6364
▁Klage	-11.6366
▁Bedarf	-11.6368
▁katastrophale	-11.6371
▁griechische	-11.6374
▁flow	-11.6376
ide	-11.638
▁anstelle	-11.6383
fähig	-11.6387
▁telephone	-11.6389
▁Glauben	-11.6392
▁scenario	-11.6392
▁Überw	-11.6393
▁heav	-11.6393
▁Säuberung	-11.6394
▁Verzögerung	-11.6395
▁vehicle	-11.6395
▁Prozesse	-11.6397
▁merger	-11.6397
▁reserve	-11.6399
hen	-11.6403
▁obstacle	-11.6406
▁expert	-11.6407
▁Sach	-11.6408
▁logic	-11.6411
▁Andere	-11.6412
sbehörde	-11.6417
▁refugee	-11.6418
40	-11.642
▁Süden	-11.6424
odalitäten	-11.6424
ordinary	-11.6424
▁train	-11.6425
▁Wertpapier	-11.6428
▁Rahmens	-11.6428
▁location	-11.643
▁strange	-11.6435
▁cargo	-11.6435
▁Herkunft	-11.6437
▁festgelegte	-11.6438
▁surprise	-11.6439
▁Förder	-11.6443
▁explicit	-11.6443
▁Tradition	-11.6444
▁Gründung	-11.6446
▁präsent	-11.6446
▁detriment	-11.6446
▁77	-11.6446
▁Ereignis	-11.6447
▁confident	-11.6449
▁Crespo	-11.6449
▁Arbeitgeber	-11.6449
▁Behauptung	-11.6449
▁Biscay	-11.6449
▁Chemikalien	-11.6449
▁Deutlichkeit	-11.6449
▁EVP	-11.6449
▁Framework	-11.6449
▁Madrid	-11.6449
▁Nordirland	-11.6449
▁Oldtimer	-11.6449
▁Propaganda	-11.6449
▁Quaestors	-11.6449
▁Washington	-11.6449
▁abhängen	-11.6449
▁angolanische	-11.6449
▁applaud	-11.6449
▁comparison	-11.6449
▁genügt	-11.6449
▁herangezogen	-11.6449
▁intolerance	-11.6449
▁isolieren	-11.6449
▁magnificent	-11.6449
▁neglect	-11.6449
▁redundancies	-11.6449
▁struggle	-11.6449
▁verdeutlicht	-11.6449
▁volunteers	-11.6449
▁widerspiegeln	-11.6449
▁EDD	-11.6449
▁Präsidium	-11.6449
▁York	-11.6449
▁Tierfutter	-11.6449
▁anzubieten	-11.6449
▁widerspricht	-11.6449
▁Nehmen	-11.6449
▁energies	-11.6449
▁Gama	-11.6449
▁labelling	-11.6449
▁legislature	-11.6449
▁Whisky	-11.6449
▁Autorität	-11.6449
▁Kontext	-11.6449
▁Staff	-11.6449
▁David	-11.645
▁auswärtige	-11.645
▁sensitivity	-11.645
▁Inselregionen	-11.645
▁Auskunft	-11.645
▁timber	-11.645
▁contradictory	-11.645
▁dismantling	-11.645
▁sugar	-11.645
▁Antibiotika	-11.645
Sheikh	-11.645
▁explanat	-11.645
▁Bilanz	-11.645
▁Vorbild	-11.645
▁survival	-11.645
▁executive	-11.645
▁vorzuschlagen	-11.645
▁eingebunden	-11.645
▁darzulegen	-11.645
▁Sharm	-11.645
▁Eigentümer	-11.645
▁driving	-11.645
▁perpetrated	-11.645
▁Schuldigen	-11.645
▁Klärung	-11.645
▁Verstoß	-11.645
▁Enttäuschung	-11.645
▁gelesen	-11.645
▁Umstand	-11.645
▁einzuhalten	-11.645
▁forgotten	-11.645
▁abzugeben	-11.645
▁zerstören	-11.645
▁damalige	-11.645
▁Datum	-11.645
▁Fourthly	-11.645
▁vorhergehende	-11.645
▁Andalusien	-11.6451
▁workforce	-11.6451
▁restrictive	-11.6451
▁rethink	-11.6451
▁Francis	-11.6451
▁Take	-11.6451
▁Solche	-11.6451
▁vertraut	-11.6451
▁sorry	-11.6452
mittelständische	-11.6452
▁equivalent	-11.6452
▁Gegebenheiten	-11.6452
▁severe	-11.6453
▁salut	-11.6453
▁Innovation	-11.6453
▁shipowners	-11.6453
▁Verlagerung	-11.6454
▁beseitigen	-11.6455
▁beschrieben	-11.6455
▁feet	-11.6455
▁lengthy	-11.6455
Mathies	-11.6456
mittelsicherheit	-11.6456
▁abstained	-11.6456
▁unlike	-11.6457
▁anybody	-11.6457
▁aufgehoben	-11.6457
▁Vorfälle	-11.6457
▁recycled	-11.6458
▁translated	-11.6458
▁Iraq	-11.6458
▁acquired	-11.6458
nationalisierung	-11.6458
▁liberalised	-11.6459
▁untereinander	-11.6459
▁Bosnia	-11.6459
▁lesson	-11.6459
Beeinträchtigung	-11.6459
▁statistical	-11.646
▁serbische	-11.646
▁1994-1999	-11.646
▁Safety	-11.646
▁Chancellor	-11.6461
▁Mechanismus	-11.6461
▁Eingreiftruppe	-11.6461
▁employability	-11.6461
▁Geschlechter	-11.6461
▁davor	-11.6462
▁inevitable	-11.6462
▁Nationalstaaten	-11.6462
▁delegates	-11.6463
enschaftspflicht	-11.6463
sprozesse	-11.6464
▁pity	-11.6464
▁stick	-11.6465
▁fill	-11.6465
▁Einfuhr	-11.6465
▁judged	-11.6466
▁verbleiben	-11.6467
sverschiedenheit	-11.6467
▁understandable	-11.6468
▁einzubringen	-11.6468
▁object	-11.6469
▁democrats	-11.647
▁Klein	-11.647
▁2005	-11.647
▁bewertet	-11.6471
▁schlimmsten	-11.6471
▁zukommt	-11.6471
▁birds	-11.6471
▁nachkommen	-11.6471
▁acute	-11.6472
▁eingestellt	-11.6473
▁rating	-11.6476
▁Steel	-11.6477
▁Paket	-11.6477
▁moderate	-11.6478
▁Mitgliedschaft	-11.6479
▁intolerable	-11.648
▁Zonen	-11.6481
▁Vorgaben	-11.6481
▁gelassen	-11.6482
▁ansonsten	-11.6482
▁derogations	-11.6484
▁disputes	-11.6484
issenschaftliche	-11.6485
▁budgets	-11.6487
▁Pr	-11.6487
aufgaben	-11.6487
▁übereinstimmen	-11.6488
▁auseinander	-11.6489
▁adverse	-11.649
entwurf	-11.649
▁entziehen	-11.6492
▁bauen	-11.6494
▁eintreten	-11.6495
▁funded	-11.6498
sgebiet	-11.6498
▁behauptet	-11.6499
▁Bruch	-11.65
achkenntnis	-11.6502
▁Ganzes	-11.6503
▁Südens	-11.6504
▁examined	-11.6507
drew	-11.6509
▁ersucht	-11.6509
▁anticipate	-11.6513
▁Mandats	-11.6515
▁controlled	-11.6515
▁demanded	-11.6518
▁Delors	-11.6525
▁Bergen	-11.6525
▁Territoriums	-11.6526
▁farms	-11.6526
▁erfassen	-11.6526
▁abuses	-11.6527
▁accorded	-11.6528
▁aufeinander	-11.6529
▁remained	-11.6531
▁recover	-11.6531
▁ansehen	-11.6532
▁mistakes	-11.6535
▁threatens	-11.6536
▁index	-11.6541
▁She	-11.6542
▁eingehender	-11.6543
E	-11.6545
▁houses	-11.6547
orientierte	-11.6548
▁blow	-11.6549
entscheidungen	-11.655
▁Organ	-11.655
▁Einleitungen	-11.6553
▁Unterzeichn	-11.6553
▁tests	-11.6555
smaßnahme	-11.6557
▁personnel	-11.6558
Restrukturierung	-11.6562
▁km	-11.6563
▁jungen	-11.6564
▁paradox	-11.6564
urning	-11.6567
▁beträchtlich	-11.6567
▁Konflikts	-11.6571
losigkeit	-11.6572
▁Monats	-11.6575
▁Instanzen	-11.6579
formen	-11.6583
elimina	-11.6583
sfreiheit	-11.6586
Sicherheitsrates	-11.6592
▁seekers	-11.6597
▁unverzichtbar	-11.6606
▁Schulden	-11.6614
▁unions	-11.6616
▁Altfahrzeugen	-11.6619
▁pertain	-11.6619
▁wine	-11.6621
▁Verletzungen	-11.6621
ungskonferenz	-11.6626
▁rigid	-11.6627
▁wished	-11.6629
▁53	-11.6631
▁Vergemeinschaft	-11.6636
nör	-11.6648
▁requesting	-11.6649
▁Work	-11.665
▁Gleichgewichts	-11.6652
Friedensabkommen	-11.6658
▁theoretisch	-11.666
▁spring	-11.6662
▁regimes	-11.6666
▁harmonise	-11.6669
▁kritisiert	-11.6676
▁positiver	-11.6684
verschmutzung	-11.669
x	-11.669
▁angeboten	-11.6695
▁Aussöhnung	-11.6696
ate	-11.6699
▁pull	-11.6702
▁Bestands	-11.6702
ursacherprinzip	-11.6703
▁Betriebs	-11.6704
▁Gerichtshofs	-11.6711
▁arme	-11.6713
▁visa	-11.6715
▁te	-11.6715
▁intelligent	-11.6717
▁Postdienstes	-11.6718
▁Gleichstellungs	-11.6722
▁frühere	-11.6723
▁wert	-11.6728
▁minds	-11.6733
na	-11.6741
▁Volkswirtschaft	-11.6741
▁Argumenten	-11.6742
▁Fach	-11.6748
▁Projekts	-11.6749
3/1999	-11.675
▁dear	-11.6754
▁Währungs	-11.6757
hether	-11.6758
▁eliminat	-11.6758
▁zufällig	-11.6762
laying	-11.6784
▁conven	-11.6795
▁reconcil	-11.6801
sbildung	-11.6804
corporate	-11.6811
▁Konzepte	-11.6811
▁responses	-11.6815
▁Unterricht	-11.6818
▁Währungen	-11.6821
▁begünstigt	-11.6825
Wettbewerbsrecht	-11.6827
▁Ta	-11.684
▁Flug	-11.687
▁fragt	-11.6875
fin	-11.6875
▁Vorbehalte	-11.688
▁Lehr	-11.6884
▁Wichtig	-11.6888
▁mutige	-11.689
ise	-11.6894
▁Austrians	-11.6895
ating	-11.6896
▁kurzfristige	-11.6897
▁Lebensmitteln	-11.6898
▁Eigen	-11.6909
▁Va	-11.692
▁hit	-11.6924
▁Fa	-11.6924
sstruktur	-11.6924
R	-11.6929
▁schädlich	-11.6933
rising	-11.6951
▁class	-11.6954
▁Ra	-11.696
▁faces	-11.697
▁aquati	-11.6983
ture	-11.6983
bau	-11.6985
▁jährliche	-11.6986
thom	-11.6991
▁offene	-11.6993
▁Vorbehalt	-11.6994
line	-11.7009
▁annehmbar	-11.7012
▁Tor	-11.7016
▁Erdöl	-11.7017
▁clearer	-11.7017
▁Al	-11.702
ster	-11.7023
▁mark	-11.7034
stehen	-11.7036
▁Vorgänger	-11.7039
orge	-11.7043
ions	-11.7049
chtsvorschriften	-11.7061
▁inhaltliche	-11.7068
echten	-11.707
▁commend	-11.7085
▁Diensten	-11.7089
▁gerichtliche	-11.7089
▁reine	-11.7094
id	-11.7099
srahmen	-11.7106
▁el	-11.7133
▁Privat	-11.7134
▁Erfolge	-11.7137
▁obligatorische	-11.7137
long	-11.7146
▁Nichts	-11.7148
programmen	-11.7153
O	-11.716
time	-11.7164
ical	-11.7165
▁le	-11.718
▁zunehmen	-11.7183
▁rechts	-11.7187
gemessen	-11.7194
▁spürbar	-11.7199
rden	-11.7201
▁benachteiligt	-11.7205
▁moderne	-11.7205
rhalb	-11.7205
▁Financi	-11.7208
▁Tier	-11.7212
▁logisch	-11.7219
▁statistische	-11.7242
▁Fünfjahres	-11.7244
service	-11.7248
olitical	-11.7249
systeme	-11.7252
favour	-11.7253
oC	-11.7254
griff	-11.7257
benefit	-11.7269
gewirkt	-11.727
onciliation	-11.7273
▁Stimmen	-11.7273
Kopf	-11.7274
macht	-11.7276
military	-11.7277
Analyse	-11.7278
▁dramatisch	-11.7278
irklichkeit	-11.7279
abel	-11.728
Albaner	-11.7281
▁rare	-11.7282
▁reale	-11.7285
▁Streit	-11.7286
▁natürliche	-11.7294
▁massiv	-11.7306
▁terrorist	-11.7318
▁betrachte	-11.7321
verhalten	-11.7321
▁600	-11.7321
▁möglicher	-11.7323
sorganisation	-11.733
▁wars	-11.733
▁vorlegt	-11.733
▁14,	-11.7331
5-03	-11.7343
06	-11.7346
nard	-11.7347
new	-11.7351
reach	-11.7359
▁nukleare	-11.736
▁traffic	-11.7363
▁übrig	-11.7364
▁Ursache	-11.7368
▁flood	-11.7373
▁ma	-11.7375
▁Spielraum	-11.7381
▁coastline	-11.7382
owing	-11.7384
▁Vizepräsident	-11.7384
tish	-11.7385
▁angehört	-11.7386
tschaftswachstum	-11.7386
▁scandal	-11.7387
▁dictatorship	-11.7387
steuer	-11.7388
▁Ursprung	-11.7388
▁Verurteilung	-11.7391
▁underline	-11.7392
▁ecosystem	-11.7393
fassung	-11.7394
▁drug	-11.7394
▁Konsequenz	-11.7395
▁vessel	-11.7396
▁Vertrau	-11.7396
▁versicher	-11.7397
▁Grundwasser	-11.7401
durchschnittlich	-11.7402
▁route	-11.7402
▁24.	-11.7406
▁sit	-11.7407
▁31.	-11.741
▁excess	-11.7411
▁Legislativ	-11.7417
▁Unionsbürger	-11.7423
▁Sudan	-11.743
▁extremist	-11.7432
▁Berg	-11.7434
▁disast	-11.7435
Programms	-11.7438
▁disadvantage	-11.7439
▁sah	-11.744
▁exceed	-11.7441
▁advise	-11.7442
ithout	-11.7443
▁Michel	-11.7443
▁isolate	-11.7443
▁prompt	-11.7444
▁juris	-11.7444
▁ultimate	-11.7445
riminal	-11.7448
▁Disziplin	-11.7448
ier	-11.7448
ke	-11.7448
▁Gesicht	-11.7449
▁enrich	-11.7449
Bendit	-11.7449
Loud	-11.7449
▁Arizona	-11.7449
▁Ausmerzung	-11.7449
▁Banotti	-11.7449
▁Berthu	-11.7449
▁Bretagne	-11.7449
▁Brutto	-11.7449
▁CFP	-11.7449
▁Drogheda	-11.7449
▁Dupuis	-11.7449
▁ELDR	-11.7449
▁ESVG	-11.7449
▁Errungenschaft	-11.7449
▁Evaluierung	-11.7449
▁Fontaine	-11.7449
▁Gallagher	-11.7449
▁Gargani	-11.7449
▁Grossetête	-11.7449
▁Immunität	-11.7449
▁Logik	-11.7449
▁Palestine	-11.7449
▁Procacci	-11.7449
▁Society	-11.7449
▁Synergie	-11.7449
▁Versöhnung	-11.7449
▁Villiers	-11.7449
▁Wälder	-11.7449
▁abgereicherte	-11.7449
▁artificial	-11.7449
▁beizubehalten	-11.7449
▁bewaffnete	-11.7449
▁biodiversity	-11.7449
▁deficiencies	-11.7449
▁dreißig	-11.7449
▁geeinigt	-11.7449
▁genocide	-11.7449
▁mazedonische	-11.7449
▁neighbourhood	-11.7449
▁repercussions	-11.7449
▁threshold	-11.7449
▁unzulänglich	-11.7449
▁Christmas	-11.7449
▁Ilisu	-11.7449
▁Mobilisierung	-11.7449
▁Stockholm	-11.7449
▁abgedeckt	-11.7449
▁dioxin	-11.7449
▁hinreichend	-11.7449
▁liberty	-11.7449
▁Intoleranz	-11.7449
▁Leader	-11.7449
▁Nachhaltigkeit	-11.7449
▁Prävention	-11.7449
▁beurteilen	-11.7449
▁gleichgültig	-11.7449
▁grasp	-11.7449
▁hinfällig	-11.7449
▁zwingt	-11.7449
▁Klassifizierung	-11.7449
▁Marinho	-11.7449
▁Stegrennan	-11.7449
▁collapse	-11.7449
▁empfangen	-11.7449
▁Artenvielfalt	-11.7449
▁deterioration	-11.7449
▁identical	-11.7449
▁Küstenregionen	-11.7449
▁Pakistan	-11.7449
▁Schweigen	-11.7449
▁Wahlkampf	-11.7449
▁Freitag	-11.7449
▁fortzusetzen	-11.7449
▁geschenkt	-11.7449
Weggen	-11.745
▁Begrenzung	-11.745
▁festgeschrieben	-11.745
▁relief	-11.745
▁irregularities	-11.745
▁steckt	-11.745
▁verbinden	-11.745
▁verstoßen	-11.745
▁UCK	-11.745
▁Kennzeichnung	-11.745
▁gestrichen	-11.745
▁Potential	-11.745
▁Minimum	-11.745
▁memory	-11.745
▁Beschreibung	-11.745
▁hinzuweisen	-11.745
▁Fluß	-11.745
▁hypocrisy	-11.745
▁gefolgt	-11.745
▁blockiert	-11.745
▁Hecke	-11.745
▁chapter	-11.745
▁vorausgesetzt	-11.745
▁immunity	-11.745
▁verweist	-11.745
▁Überleben	-11.745
▁anderswo	-11.745
▁auswirkt	-11.745
▁investigate	-11.745
▁machbar	-11.745
▁Finanzminister	-11.745
▁verification	-11.745
▁Interpretation	-11.745
▁passieren	-11.745
▁verboten	-11.745
▁slaughter	-11.745
▁Auslaufen	-11.745
▁Zypernfrage	-11.7451
▁klimatische	-11.7451
▁Anyone	-11.7451
▁nowadays	-11.7451
▁machine	-11.7451
▁krasse	-11.7451
▁finalised	-11.7451
▁entirety	-11.7451
▁ideological	-11.7451
beihilfen	-11.7451
▁Huhne	-11.7452
▁350	-11.7452
▁Sozialpartner	-11.7453
▁Gebot	-11.7453
▁profitable	-11.7453
▁Polizisten	-11.7453
▁antibiotics	-11.7453
▁autonomy	-11.7453
▁deregulation	-11.7453
▁mehrjährige	-11.7453
▁Certainly	-11.7453
▁Unrecht	-11.7453
▁condemnation	-11.7453
▁sadly	-11.7453
▁satisfy	-11.7454
Autonomiebehörde	-11.7454
▁verwaltet	-11.7454
▁foster	-11.7454
▁adaptation	-11.7455
▁Anklage	-11.7455
▁72	-11.7455
▁begnügen	-11.7455
▁scandalous	-11.7456
▁Rindfleisch	-11.7456
▁revised	-11.7456
▁10%	-11.7456
▁ausgelegt	-11.7456
▁Saal	-11.7456
▁sharing	-11.7457
▁Verfahrensweise	-11.7457
▁ermitteln	-11.7457
▁lernen	-11.7457
herent	-11.7458
▁Umgang	-11.7458
entrepreneurship	-11.7458
▁Hindernis	-11.7458
▁specify	-11.7458
▁aufgetreten	-11.7459
▁Sichtweise	-11.7459
▁emerged	-11.7459
▁reisen	-11.746
stuffs	-11.746
▁woman	-11.7461
▁postponed	-11.7461
▁profile	-11.7461
▁Almería	-11.7461
▁EURODAC	-11.7461
▁Häftlinge	-11.7462
▁benchmarking	-11.7462
▁bedürfen	-11.7462
konzentration	-11.7463
▁vorbehalten	-11.7464
▁annimmt	-11.7465
▁Laan	-11.7465
▁überleben	-11.7466
▁Privatisierung	-11.7466
▁viable	-11.7466
▁Hüter	-11.7467
▁accompany	-11.7467
▁geliefert	-11.7467
▁formulated	-11.7467
▁Fernsehen	-11.7469
▁bomb	-11.7469
▁badly	-11.7469
▁noticed	-11.7469
▁industrielle	-11.7469
▁outlined	-11.747
▁Straftaten	-11.747
▁exert	-11.7471
▁entnehmen	-11.7472
▁vorschlägt	-11.7473
▁ausmacht	-11.7475
▁legality	-11.7475
▁attractive	-11.7476
▁Beamter	-11.7476
▁zuläßt	-11.7476
▁Much	-11.7476
▁Befürchtungen	-11.7476
▁walk	-11.7476
▁humanity	-11.7476
▁sight	-11.7476
▁tribute	-11.7477
▁Mitte	-11.7477
▁Ausbeut	-11.7477
▁Erst	-11.7477
▁anzugehen	-11.7477
▁Optionen	-11.7478
▁blood	-11.7478
▁GUE	-11.7479
▁Flut	-11.748
▁residents	-11.748
▁gerufen	-11.7481
tangible	-11.7483
▁customers	-11.7483
alter	-11.7487
▁Lachse	-11.7487
▁Fälschungen	-11.7488
▁Beschränkungen	-11.7488
▁strenger	-11.7489
▁voters	-11.7489
▁belgischen	-11.7489
sumption	-11.7489
ekanntlich	-11.7489
zugeben	-11.7493
▁reviewed	-11.7496
▁zentral	-11.7497
▁empfehlen	-11.7498
▁studie	-11.7498
▁indirekt	-11.7501
▁forests	-11.7503
▁kg	-11.7504
▁Umweltschutzes	-11.7505
▁scandals	-11.7506
▁Norden	-11.7506
▁blockade	-11.7511
▁bedingt	-11.7514
▁Zufall	-11.7514
▁Gesetzes	-11.7515
▁Mainstreaming	-11.7516
▁directed	-11.7517
▁schnelle	-11.7517
▁listed	-11.7517
▁served	-11.7519
▁faktisch	-11.752
▁Förderkonzept	-11.7521
schaftlicher	-11.7523
▁Lücken	-11.7524
▁auferlegt	-11.7526
wettbewerbsfähig	-11.7527
▁mittels	-11.753
▁messen	-11.7536
▁shed	-11.7536
▁pillars	-11.754
▁clauses	-11.754
▁illegale	-11.754
hlbeihilfenkodex	-11.754
▁Angriffe	-11.7544
▁fears	-11.7549
▁strukturell	-11.7549
▁chemicals	-11.7552
▁einhalten	-11.7552
▁Truppen	-11.7554
▁Konsultationen	-11.7556
▁solide	-11.7557
▁transported	-11.7559
aught	-11.756
erbracht	-11.7562
breaking	-11.7562
▁units	-11.7564
▁voneinander	-11.7564
▁Service	-11.7567
minated	-11.7567
▁commission	-11.757
▁enlarge	-11.7571
▁Hunderte	-11.7574
▁deficits	-11.7574
▁friendly	-11.7578
▁Schwächen	-11.758
▁hört	-11.7587
längerung	-11.7593
▁spheres	-11.7597
▁outer	-11.7599
ors	-11.7602
▁realistisch	-11.7607
▁perspectives	-11.761
50	-11.7615
atsanwaltschaft	-11.7615
▁exci	-11.7615
▁embrace	-11.7616
selbe	-11.7622
▁helped	-11.7622
▁Hat	-11.7623
zwischen	-11.7623
▁reassure	-11.7628
▁certificate	-11.7632
▁dramatische	-11.7637
schuß	-11.764
▁interpret	-11.7642
▁reads	-11.7645
▁Freunde	-11.7646
▁280	-11.7647
▁Meere	-11.7648
▁versprochen	-11.7649
▁führte	-11.7651
▁Runde	-11.7651
▁Futtermitteln	-11.7654
que	-11.7654
rweise	-11.7656
▁nein	-11.7657
▁vorsichtig	-11.7658
▁imports	-11.7667
▁vierten	-11.7668
iederaufgenommen	-11.7668
▁Bes	-11.767
1/2000	-11.7673
▁ordnungsgemäßen	-11.7674
▁Ausweis	-11.7674
5-014	-11.7678
gemäß	-11.7681
▁interfere	-11.7683
steht	-11.7687
dämm	-11.7691
▁strands	-11.7691
▁fire	-11.7692
▁Generalsta	-11.7693
leichbehandlung	-11.7694
▁publicly	-11.7696
8(	-11.7705
▁Zusatzstoffen	-11.7718
5-000	-11.7718
▁lag	-11.7731
ri	-11.7738
▁Entsch	-11.774
▁threats	-11.7744
sniveau	-11.7747
▁stammen	-11.775
8/2000	-11.7755
sgrundlage	-11.7761
che	-11.7761
▁Mitarbeitern	-11.7769
sausschusses	-11.7769
▁Verfassung	-11.777
▁Universal	-11.7778
▁fo	-11.7781
fahrguttransport	-11.7786
▁schlimm	-11.779
▁viewed	-11.7791
▁ähnlichen	-11.7791
▁Ereignissen	-11.7792
itrittswill	-11.7796
▁compromises	-11.7796
tag	-11.7796
▁Wohl	-11.7799
▁eigener	-11.78
niveau	-11.7802
dez	-11.7806
▁Ges	-11.7808
▁stellte	-11.781
▁vierte	-11.7811
▁Sieg	-11.7813
▁Federal	-11.7814
▁Bildungs	-11.7815
▁Erwerbs	-11.7819
▁Statut	-11.7821
with	-11.7829
▁Armee	-11.7835
▁publish	-11.7837
▁Geschäfts	-11.7846
▁Vermittlungs	-11.7849
▁anspruchsvolle	-11.7851
rying	-11.7856
schutzes	-11.7858
▁authorise	-11.7863
überschreitenden	-11.7863
▁Hinter	-11.7868
▁wieviel	-11.7872
▁Begleit	-11.7872
verbot	-11.7876
▁administrations	-11.7876
▁relati	-11.7877
dung	-11.7878
▁vorangegangen	-11.788
▁minimal	-11.788
▁Österreicher	-11.7881
spräsidenten	-11.7881
▁Fahrzeugen	-11.7888
▁Seeverkehr	-11.7896
▁1998/01	-11.7907
leistungsausweis	-11.7909
▁Ka	-11.7913
▁asks	-11.7914
▁models	-11.7916
praxis	-11.7917
▁rückwirkend	-11.7918
▁Kindern	-11.7919
▁transparenter	-11.792
planungszeitraum	-11.7923
▁Meinungen	-11.7924
ierten	-11.7925
▁schöne	-11.7926
▁Gerichten	-11.7927
▁zurückzu	-11.7932
▁accumulat	-11.7941
pp	-11.7941
▁Hunderttausende	-11.7952
▁Ferne	-11.796
nstatt	-11.7961
last	-11.7963
▁replac	-11.7966
▁accounting	-11.7967
ner	-11.797
▁Davo	-11.7972
▁Berufs	-11.7978
▁religio	-11.7979
-079	-11.7981
▁Men	-11.7988
▁Emission	-11.7991
projekte	-11.7992
stelle	-11.7996
▁greate	-11.7996
▁Plenar	-11.7997
sel	-11.7999
▁vorgebracht	-11.8005
▁voran	-11.8009
▁Protest	-11.8021
gar	-11.8027
▁Air	-11.8029
verständnis	-11.8033
▁Verwertung	-11.8037
ities	-11.8046
▁lege	-11.8051
teils	-11.807
▁tätigen	-11.807
▁rund	-11.8075
▁bitter	-11.8078
cope	-11.8079
ezentralisierung	-11.8086
▁irre	-11.8088
▁definite	-11.8091
ber	-11.8097
▁Mitteilungen	-11.8101
▁tiefgreifende	-11.8103
▁Familie	-11.8109
▁Mißverständnis	-11.8111
lange	-11.8118
au	-11.8121
ante	-11.8123
▁existieren	-11.8126
ited	-11.8129
▁94	-11.8131
pping	-11.8133
mar	-11.8144
▁discriminat	-11.8152
▁pave	-11.8154
Sozialdemokraten	-11.8156
▁klarer	-11.8164
▁Betrachtung	-11.8165
▁Wh	-11.817
▁fortgesetzt	-11.8171
▁inhaftiert	-11.8175
▁solidarisch	-11.8177
▁6.	-11.8178
▁Lande	-11.8184
ach	-11.8192
▁Car	-11.8209
▁56	-11.8212
▁isolation	-11.8215
wasser	-11.8222
▁surprising	-11.8224
consistent	-11.8225
Mittel	-11.8228
▁Zahlung	-11.823
▁Coh	-11.823
ran	-11.8231
▁bann	-11.8241
▁Has	-11.8246
▁Trag	-11.8253
rung	-11.8254
▁abgestimmte	-11.8254
sfindung	-11.8259
▁Kein	-11.8265
▁derartig	-11.8266
▁Menschenrechten	-11.8272
▁erstellen	-11.8272
vorschläge	-11.8273
hält	-11.8274
▁ends	-11.8278
wohlorientierte	-11.828
▁Belgrad	-11.8288
▁Pa	-11.829
▁increases	-11.8291
▁reported	-11.8299
▁mittelfristig	-11.8303
▁aktivere	-11.8314
mail	-11.8315
rauf	-11.8324
▁beauftragt	-11.8327
sparen	-11.833
corporation	-11.8331
▁Gedächtnis	-11.8333
▁Niederlassung	-11.8338
▁Luft	-11.8343
gründen	-11.8345
▁Li	-11.8346
bildung	-11.8347
▁prop	-11.8351
sabkommens	-11.8351
weiterentwickelt	-11.8362
án	-11.8365
leben	-11.8366
Regionen	-11.8367
Kultur	-11.8369
▁marketing	-11.8369
▁Eisenbahn	-11.8371
partei	-11.8376
down	-11.8377
▁nachteilig	-11.838
▁gebührende	-11.8385
seekers	-11.8389
Y	-11.8391
▁reinforc	-11.8392
▁treffend	-11.8401
▁Freihandels	-11.8401
▁Deutsche	-11.8402
▁selten	-11.8405
▁resist	-11.8414
reichung	-11.8417
▁optimal	-11.8417
lly	-11.8427
▁aufgr	-11.8429
compatible	-11.8433
▁Schritten	-11.8436
▁Lichte	-11.844
▁dringen	-11.8444
▁Kandidaten	-11.8449
▁umgehen	-11.8449
▁En	-11.8451
▁ersuche	-11.8453
▁Anreiz	-11.8457
opfer	-11.8465
▁Flüsse	-11.8467
▁Häuser	-11.8467
▁Postämter	-11.8474
▁Abschnitt	-11.8475
▁character	-11.8475
sdebatte	-11.8475
ns	-11.8476
▁Vorgehensweise	-11.8478
▁Lücke	-11.8478
▁Seine	-11.8478
▁unzureichende	-11.8478
▁Niederlande	-11.8479
▁beglückwünsche	-11.848
▁compensat	-11.8481
zahlung	-11.8483
▁Audit	-11.8483
▁1998.	-11.8484
▁Drittländer	-11.8492
▁description	-11.8492
▁Tempo	-11.8493
gefangen	-11.8494
over	-11.8495
▁Communist	-11.8495
▁weigh	-11.8498
▁team	-11.8498
▁conviction	-11.8498
▁Diktatur	-11.8498
▁grave	-11.8498
▁Eigenschaft	-11.8499
▁hielt	-11.8499
▁Willens	-11.85
▁berichtet	-11.85
▁closure	-11.8503
▁killing	-11.8504
▁error	-11.8504
ties	-11.8505
▁tens	-11.8506
action	-11.8506
▁sichere	-11.8506
▁victim	-11.8506
▁politician	-11.8507
rechtlich	-11.8509
▁Sport	-11.8509
▁storm	-11.851
▁eye	-11.851
preise	-11.8511
▁cod	-11.8512
▁hinein	-11.8512
▁bürokratische	-11.8513
▁Besitzstand	-11.8519
▁derivative	-11.852
▁spot	-11.852
▁reveal	-11.8527
paket	-11.8529
verhüt	-11.8535
▁Erbe	-11.8535
reform	-11.8535
▁entzieh	-11.8537
treten	-11.8538
▁book	-11.8538
▁tragische	-11.854
▁reservation	-11.854
▁Kon	-11.8543
▁remov	-11.8544
▁distort	-11.8545
▁decrease	-11.8549
▁recycle	-11.8551
▁discover	-11.8552
▁vigorous	-11.8554
▁Rechenschaft	-11.8554
▁Verfüg	-11.8555
▁hop	-11.8555
ntage	-11.8556
▁Raumordnung	-11.8559
▁except	-11.8559
▁sovereign	-11.856
▁apprais	-11.856
▁affirm	-11.856
Lebhafter	-11.856
NGL	-11.856
▁Aktualisierung	-11.856
▁August	-11.856
▁Außenhaut	-11.856
▁Blockade	-11.856
▁Bulgaria	-11.856
▁Bulgarien	-11.856
▁Bundeskanzler	-11.856
▁Böhm	-11.856
▁CFSP	-11.856
▁Computer	-11.856
▁Etikett	-11.856
▁Eurodac	-11.856
▁Flughafen	-11.856
▁GASP	-11.856
▁Geldgeber	-11.856
▁Gesamtfangmenge	-11.856
▁Lebanon	-11.856
▁Lynne	-11.856
▁Phänomen	-11.856
▁Purvis	-11.856
▁Radwan	-11.856
▁Skopje	-11.856
▁Tribunal	-11.856
▁Umgebung	-11.856
▁VOTE	-11.856
▁Vorbedingung	-11.856
▁Wohnsitz	-11.856
▁begleitet	-11.856
▁bretonische	-11.856
▁controversy	-11.856
▁curtain	-11.856
▁empfunden	-11.856
▁encompass	-11.856
▁entsprochen	-11.856
▁ergänzt	-11.856
▁ermordet	-11.856
▁erschwert	-11.856
▁fabric	-11.856
▁female	-11.856
▁hypocritical	-11.856
▁interessieren	-11.856
▁medizinische	-11.856
▁nepotism	-11.856
▁perpetrator	-11.856
▁reaffirm	-11.856
▁twice	-11.856
▁unusual	-11.856
▁verzichten	-11.856
▁zwanzig	-11.856
▁England	-11.8561
▁Rübig	-11.8561
▁beurteilt	-11.8561
▁expensive	-11.8561
▁judiciary	-11.8561
▁stammt	-11.8561
▁tribunal	-11.8561
▁abzubauen	-11.8561
▁anderthalb	-11.8561
▁complementarity	-11.8561
▁verschärfen	-11.8561
▁ESA	-11.8561
▁whisky	-11.8561
▁window	-11.8561
▁Karibik	-11.8561
▁gegründet	-11.8561
▁Präferenz	-11.8561
▁teilgenommen	-11.8561
▁Maßstab	-11.8561
▁forefront	-11.8561
▁paßt	-11.8561
▁1989	-11.8561
▁Ombudsman	-11.8561
▁erwägen	-11.8561
▁verliert	-11.8561
▁entsenden	-11.8561
▁Davies	-11.8561
▁conscience	-11.8561
▁guardian	-11.8561
▁verbergen	-11.8561
▁abgebaut	-11.8561
▁assemblies	-11.8561
▁repression	-11.8561
▁micro	-11.8561
▁Terrorismus	-11.8561
▁qualify	-11.8561
▁stattfand	-11.8561
▁Spielregeln	-11.8561
▁Szenari	-11.8561
▁Anregung	-11.8561
▁ignorieren	-11.8561
▁Verschwendung	-11.8561
▁ambiguity	-11.8561
▁housing	-11.8561
▁Gruppierung	-11.8561
▁gedacht	-11.8561
▁Zivilisation	-11.8561
▁unvereinbar	-11.8561
▁zusammenfassen	-11.8561
▁Aufwand	-11.8561
▁Ausgewogenheit	-11.8561
▁Bürgermeister	-11.8561
▁Next	-11.8561
▁Haarder	-11.8561
▁hinausläuft	-11.8561
▁Abwesenheit	-11.8561
▁continually	-11.8561
▁devastating	-11.8561
▁widersprechen	-11.8561
▁continuity	-11.8561
▁intensify	-11.8561
▁Humanressourcen	-11.8561
▁Menschheit	-11.8561
▁vorangekommen	-11.8561
▁Unterdrückung	-11.8561
▁Ersuchen	-11.8561
▁Ideologie	-11.8561
▁civilised	-11.8561
▁grip	-11.8561
▁drastically	-11.8562
▁Aufforderung	-11.8562
▁Viertel	-11.8562
makroökonomische	-11.8562
▁hingenommen	-11.8562
ureau	-11.8562
▁ablaufen	-11.8562
▁tendency	-11.8562
▁postman	-11.8562
▁alliance	-11.8562
Unternehmergeist	-11.8562
▁delight	-11.8562
▁Assistance	-11.8562
▁einfließen	-11.8563
▁großartige	-11.8563
▁hinnehmen	-11.8563
▁Andernfalls	-11.8563
▁retten	-11.8563
▁Auftreten	-11.8563
▁cancelled	-11.8563
SC	-11.8563
▁precondition	-11.8563
▁100%	-11.8563
▁sharp	-11.8563
▁übertrieben	-11.8563
▁anmerken	-11.8563
▁Menschenleben	-11.8563
▁Stör	-11.8564
▁aussieht	-11.8564
▁unclear	-11.8564
▁catch	-11.8564
▁permission	-11.8564
▁worldwide	-11.8564
▁creative	-11.8564
▁beinhalten	-11.8564
▁preference	-11.8564
▁displaced	-11.8564
▁Thyssen	-11.8564
▁acquisitions	-11.8564
▁bread	-11.8564
▁Transaktionen	-11.8564
▁verdanken	-11.8564
▁Mittelmeerraum	-11.8565
▁acquire	-11.8565
▁Weshalb	-11.8565
▁middle	-11.8565
▁gebunden	-11.8565
▁einzutreten	-11.8565
▁deployed	-11.8565
▁Verständ	-11.8565
▁affordable	-11.8565
▁murdered	-11.8565
▁Hauptproblem	-11.8565
▁autonomous	-11.8566
▁renewal	-11.8566
▁incorrect	-11.8566
▁agency	-11.8566
▁Konservativen	-11.8566
▁saving	-11.8566
▁beantragen	-11.8566
▁durfte	-11.8567
▁Firmen	-11.8567
▁verkündet	-11.8567
▁polizeiliche	-11.8567
▁engagieren	-11.8568
▁formulate	-11.8568
▁15%	-11.8568
▁realisiert	-11.8569
▁accusation	-11.8569
▁violated	-11.8569
▁Reformierung	-11.857
▁Periodische	-11.857
▁greift	-11.857
▁zweimal	-11.857
▁organisieren	-11.857
▁entschuldigen	-11.857
▁verzerren	-11.857
▁habitats	-11.8571
▁kümmert	-11.8571
▁Bauern	-11.8571
▁concluding	-11.8571
▁gespannt	-11.8571
▁Belange	-11.8572
▁ausgeht	-11.8572
▁benutzt	-11.8572
▁search	-11.8572
xon	-11.8572
▁distinguish	-11.8573
▁update	-11.8573
▁verbieten	-11.8573
▁thoroughly	-11.8573
▁continuous	-11.8573
▁GFP	-11.8574
▁birth	-11.8574
▁convincing	-11.8574
▁Zucker	-11.8574
▁organisational	-11.8574
▁exploited	-11.8575
▁fifty	-11.8575
▁Know	-11.8575
▁abzielen	-11.8576
▁quick	-11.8576
▁lenken	-11.8576
▁behindern	-11.8577
▁blocked	-11.8578
▁gigantische	-11.8578
▁gebaut	-11.8578
▁aufgreifen	-11.8578
▁Bereicherung	-11.8578
▁ruling	-11.8578
▁Thus	-11.8578
▁wohnen	-11.8579
▁Hauptziel	-11.858
▁delivery	-11.858
▁substantially	-11.8581
▁Sprecher	-11.8581
▁Indians	-11.8581
▁unterhalten	-11.8581
▁Atlantische	-11.8582
▁witnessed	-11.8582
▁vorsehen	-11.8583
republik	-11.8583
▁bekommt	-11.8583
▁prohibition	-11.8583
▁vorbereiten	-11.8583
hould	-11.8584
Finanzverwaltung	-11.8584
fischerei	-11.8584
▁auslösen	-11.8584
▁distance	-11.8584
▁Schon	-11.8585
▁sterben	-11.8585
▁zollen	-11.8586
▁Nutzer	-11.8586
▁englischen	-11.8586
▁hochwertigen	-11.8586
förderungswürdig	-11.8586
▁Denken	-11.8586
▁criticised	-11.8587
▁advised	-11.8587
gegen	-11.8588
▁Loy	-11.8588
▁provisional	-11.8588
▁drängt	-11.8588
▁ausreicht	-11.8588
▁motivation	-11.8588
sprinzips	-11.8588
▁momentan	-11.8589
▁Ober	-11.859
▁bombing	-11.859
▁sales	-11.859
▁angepaßt	-11.8593
versammlung	-11.8593
▁policing	-11.8593
Ungleichgewichte	-11.8594
▁Übersetzungen	-11.8596
▁weaker	-11.8596
▁genannte	-11.8596
▁stoßen	-11.8597
▁freier	-11.8599
▁closing	-11.86
▁Ruf	-11.86
▁2%	-11.8601
▁operative	-11.8602
▁federalist	-11.8602
▁transform	-11.8602
▁ausführen	-11.8603
▁gefallen	-11.8604
bare	-11.8604
▁finished	-11.8606
▁afrikanischen	-11.8607
▁Wild	-11.8607
▁stating	-11.8609
▁sexu	-11.861
▁tensions	-11.861
sozioökonomische	-11.8614
▁sceptical	-11.8614
ellen	-11.8615
▁verkaufen	-11.8615
▁tackled	-11.8618
▁electric	-11.8619
▁lo	-11.8625
▁translate	-11.8628
▁solved	-11.8628
▁Säuberungen	-11.863
▁wirft	-11.863
▁reserves	-11.863
▁Liberale	-11.8636
▁Protokolle	-11.8637
▁Wortmeldungen	-11.8637
personen	-11.8639
▁endet	-11.864
▁protocols	-11.8642
▁Orientierungen	-11.8643
▁kohärente	-11.8643
▁schätzen	-11.8644
▁Vermeid	-11.8644
▁Vorgehensweisen	-11.8645
▁engagiert	-11.8646
▁billigen	-11.8646
▁wages	-11.8646
debatte	-11.8647
▁hierher	-11.8647
▁angehen	-11.8649
▁Summen	-11.8649
.00	-11.865
▁Sozialdemokrati	-11.8651
▁anerkannte	-11.8655
▁marks	-11.8657
problematik	-11.8658
▁damaged	-11.8664
▁objectively	-11.8666
▁emerge	-11.8666
▁articles	-11.8667
▁denkbar	-11.8669
▁Materie	-11.8669
▁sicheren	-11.867
▁ideologische	-11.867
▁fundamentally	-11.8672
▁Ausschreibung	-11.8673
▁Kürzung	-11.8675
▁Fähigkeiten	-11.8682
▁denkt	-11.8684
▁Sensibili	-11.8684
▁transparente	-11.8687
▁internally	-11.8687
▁lau	-11.8687
▁judgements	-11.8688
▁greifen	-11.8688
▁norm	-11.869
sammenzuarbeiten	-11.8691
▁faster	-11.8693
▁Krankheiten	-11.8696
licher	-11.8696
▁fortgeschritten	-11.8698
▁falling	-11.8698
▁Krieges	-11.8698
▁answered	-11.8699
▁choices	-11.8701
▁explanations	-11.8702
▁ethic	-11.8708
▁sad	-11.8711
alten	-11.8712
▁Kriegsverbreche	-11.8713
▁Ku	-11.8714
▁oberste	-11.8715
▁nahm	-11.8719
▁guide	-11.872
alth	-11.872
▁acknowledges	-11.8722
▁schwerer	-11.8723
▁findings	-11.8724
▁autonome	-11.8727
▁auszu	-11.873
▁associat	-11.8731
▁proves	-11.8735
▁permits	-11.8736
▁ließen	-11.8738
solvenzverfahren	-11.8742
austausch	-11.8745
▁Entsteh	-11.8747
▁gebührend	-11.8747
á	-11.8747
▁einseitige	-11.875
▁hot	-11.8751
▁geringere	-11.8751
going	-11.8752
▁seas	-11.8754
tic	-11.8759
▁kontinuierlich	-11.8761
▁Wahlkreis	-11.8766
raum	-11.8768
▁arisen	-11.8769
▁Europäern	-11.8772
▁riesigen	-11.8773
feld	-11.8773
locked	-11.8774
▁zugeben	-11.8778
▁finances	-11.8784
▁Integr	-11.8786
▁Fro	-11.879
▁Charakters	-11.8792
mark	-11.8793
▁hinzu	-11.8795
1(	-11.8797
KO	-11.8799
ton	-11.8801
▁cards	-11.8801
benfalls	-11.8801
▁fails	-11.8805
jährige	-11.8806
▁phrase	-11.8806
▁systematische	-11.8821
▁staatlicher	-11.8824
▁score	-11.8826
▁Gütern	-11.8831
fizierung	-11.8832
▁vorgegeben	-11.8833
▁applicants	-11.8833
▁Nachteil	-11.8834
sberater	-11.8834
▁incomes	-11.8835
▁Herz	-11.8846
▁discharges	-11.8851
▁einheitliches	-11.8851
▁returns	-11.8851
Straftatbestände	-11.8858
▁unabhängiges	-11.886
▁pledge	-11.886
▁anschließend	-11.8862
▁radikal	-11.8863
▁paragraphs	-11.8867
▁grants	-11.8867
▁roles	-11.8868
▁Erbring	-11.8873
▁relationships	-11.8873
▁sinnvolle	-11.8888
▁liked	-11.8889
▁sozio	-11.889
branche	-11.8896
".	-11.8898
rechte	-11.8903
alt	-11.8911
▁sorts	-11.8913
▁Derivaten	-11.8925
▁einsetzt	-11.8927
▁verschärft	-11.8929
▁ausschließliche	-11.8929
▁tend	-11.8933
ola	-11.8934
ost	-11.8935
."	-11.8935
▁gestiegen	-11.8937
plizit	-11.8938
▁wahre	-11.8939
▁Impulse	-11.8939
▁multipl	-11.8944
linien	-11.8945
▁explains	-11.8946
▁83	-11.8946
swachstum	-11.8947
▁Parallel	-11.8954
▁Partnern	-11.8956
▁berühmte	-11.8956
▁Weisen	-11.8957
▁verfügbare	-11.8959
▁Rettung	-11.8961
3%	-11.8962
▁steer	-11.8964
▁schuldig	-11.8965
▁solidarische	-11.8973
▁praise	-11.8974
▁virtual	-11.8977
▁strikte	-11.8977
▁umfangreich	-11.898
▁Danke	-11.8984
▁fi	-11.8989
rant	-11.899
▁schwarze	-11.9003
Rat	-11.9008
emeinschaftliche	-11.9008
▁gro	-11.9012
▁Gesprächen	-11.9015
▁8,	-11.9019
▁Sprachen	-11.902
▁unabdingbar	-11.9021
▁angenommene	-11.9023
▁Welthandel	-11.9024
▁unnötig	-11.9026
▁Hafens	-11.9027
▁facilitat	-11.9037
▁Wan	-11.9037
▁glücklich	-11.9057
▁grüne	-11.9058
colonial	-11.9062
▁früh	-11.9069
▁wirtschafts	-11.907
jahr	-11.9086
Kommission	-11.9092
arten	-11.9102
▁dark	-11.9102
▁allgemeiner	-11.9104
finanzierung	-11.9117
▁stages	-11.9121
▁proportional	-11.9129
cline	-11.9135
▁konzertierte	-11.9142
▁Ermittlungs	-11.9153
▁tri	-11.9155
sarbeit	-11.916
▁Unglücks	-11.9161
▁niedriger	-11.9163
▁fourt	-11.9165
▁gezielt	-11.9179
erin	-11.9184
▁äußert	-11.9185
entschließung	-11.9186
Nord	-11.9188
▁verbundene	-11.9195
voller	-11.9206
▁vary	-11.9219
▁Mo	-11.9219
schnellstmöglich	-11.9219
fallen	-11.922
▁46	-11.922
Risikomanagement	-11.9222
▁Schiffs	-11.9225
▁Macedonian	-11.9225
▁manager	-11.9225
▁nützliche	-11.9226
▁believed	-11.9228
ack	-11.9243
technologie	-11.9245
ttern	-11.9247
reichen	-11.9253
markt	-11.9259
▁standen	-11.9271
grenzen	-11.9273
tigung	-11.928
▁rush	-11.9284
▁stabile	-11.9285
▁radio	-11.9288
berechtigung	-11.929
▁einheitlich	-11.9292
▁11,	-11.93
als	-11.9304
▁sicherer	-11.9309
▁zugegeben	-11.9314
▁schwach	-11.9317
30	-11.9317
▁beruhen	-11.932
▁disseminati	-11.9322
▁seize	-11.9324
la	-11.9327
aufnahme	-11.9335
▁älter	-11.9336
▁incorporat	-11.9338
▁Me	-11.9351
+-	-11.9352
▁ökologisch	-11.9352
vertreter	-11.9356
▁Innen	-11.9361
stoß	-11.9378
apparat	-11.9381
▁zentralisierte	-11.9382
▁commit	-11.9383
effective	-11.9386
▁zusammenhängend	-11.9387
▁Keine	-11.941
ausgaben	-11.9411
quote	-11.943
art	-11.9435
bereichen	-11.9441
▁seinerzeit	-11.9446
▁Empfänger	-11.9446
Gebiet	-11.946
ES	-11.9467
▁vertretene	-11.9476
schreiten	-11.9476
▁individuelle	-11.9477
▁Ausweise	-11.9478
ested	-11.9481
wirtschaftung	-11.9483
▁elementare	-11.9486
▁türkisch	-11.9487
sorgniserregend	-11.9495
▁Kernkraftwerk	-11.9498
▁Or	-11.95
bleiben	-11.9501
▁Schul	-11.9507
▁bewährt	-11.9508
▁contravene	-11.9519
bewußt	-11.9522
Recht	-11.9523
iz	-11.9524
▁sine	-11.9525
▁su	-11.9529
red	-11.9529
▁kostenlos	-11.9529
▁Justizminister	-11.9535
operation	-11.9535
▁ar	-11.9541
behandlung	-11.9547
▁Ring	-11.9549
shilfe	-11.955
forming	-11.9554
▁authorit	-11.9556
0%	-11.9559
▁dortige	-11.9564
▁compris	-11.9564
emocratic	-11.9564
ably	-11.9571
gestellt	-11.9572
aßnahmenbezogene	-11.9572
water	-11.9572
5%	-11.9579
▁dry	-11.9579
abschied	-11.9579
0/2000	-11.9581
Artikel	-11.9586
Süd	-11.959
ging	-11.9591
▁Through	-11.9598
hersteller	-11.9599
ship	-11.96
gibt	-11.9602
erlängerung	-11.9605
ructural	-11.9606
▁Individu	-11.9607
▁Bo	-11.961
▁Spekulation	-11.9611
▁dam	-11.9615
SEC	-11.9621
lo	-11.9622
▁Hi	-11.9628
▁breit	-11.9631
rat	-11.9632
▁Ökosystem	-11.9634
ntwicklung	-11.964
▁Serb	-11.964
Krise	-11.9641
▁bezu	-11.9642
free	-11.9648
▁geboren	-11.9651
führen	-11.9651
▁Stadtviertel	-11.9651
▁angelegt	-11.9652
standing	-11.9657
katalog	-11.9659
▁Minute	-11.9667
▁Rasse	-11.9667
▁natur	-11.9672
▁struc	-11.9681
genommen	-11.9684
▁vertrauen	-11.9686
▁einleiten	-11.9691
▁erkläre	-11.9691
▁formelle	-11.9692
▁inquir	-11.9692
▁geteilt	-11.9695
lassung	-11.9696
▁Zug	-11.9696
▁enge	-11.9699
efore	-11.9699
▁ziehe	-11.97
▁Flagge	-11.9703
▁unwei	-11.971
▁pric	-11.9712
prozeß	-11.9713
▁ausführte	-11.9715
▁precede	-11.9719
ausbildung	-11.972
▁gehöre	-11.9721
▁pu	-11.9722
▁fern	-11.9723
▁school	-11.9723
▁Jugendliche	-11.9727
▁Mindestmaß	-11.9728
▁Behinderte	-11.9729
▁erteile	-11.9733
▁gre	-11.9733
▁zustimme	-11.9734
▁divert	-11.9734
▁kenne	-11.9735
▁Folg	-11.9736
▁Grüne	-11.9737
▁Again	-11.9739
▁Rechtfertigung	-11.9741
▁issu	-11.9742
▁entitlement	-11.9742
▁fühlt	-11.9742
▁Bezeichnung	-11.9743
5-012	-11.9744
▁Golf	-11.9744
▁approximation	-11.9744
▁79	-11.9744
▁prosecutor	-11.9748
▁Weltkrieg	-11.9749
Fina	-11.9749
▁promise	-11.975
▁Klarstellung	-11.9751
▁Prüf	-11.9752
▁village	-11.9752
▁newspaper	-11.9752
▁temperature	-11.9753
▁infringement	-11.9753
▁predecessor	-11.9753
▁dossier	-11.9755
▁Anmerkung	-11.9756
▁NGO	-11.9757
▁incentive	-11.9757
▁arrangement	-11.9757
▁taxpayer	-11.9758
Umwelt	-11.9759
▁tackl	-11.976
usgehend	-11.9761
Mitteln	-11.9764
▁Subsidiaritäts	-11.9767
▁Alt	-11.9767
remdenfeindliche	-11.977
▁abstain	-11.9772
▁supervis	-11.9773
▁Strafe	-11.9776
do	-11.9776
gelegt	-11.9777
völkerung	-11.978
▁Reich	-11.9783
▁ratify	-11.9789
▁farmer	-11.9789
▁wünscht	-11.9798
viel	-11.98
▁eradicate	-11.98
▁Bestand	-11.98
6%	-11.9803
▁embark	-11.9804
denken	-11.9806
2000	-11.9806
▁Einhalt	-11.9807
▁Gewiß	-11.9808
▁predict	-11.9808
▁modest	-11.9809
9/2000	-11.9809
lotte	-11.9809
7/2000	-11.981
▁Vitori	-11.981
▁Stahl	-11.981
▁Adria	-11.981
▁Valentin	-11.981
▁Demagog	-11.981
▁Giorg	-11.981
▁Shetland	-11.981
▁vermißt	-11.981
▁ADAPT	-11.981
▁Anbieter	-11.981
▁Arafat	-11.981
▁Aznar	-11.981
▁Barcelona	-11.981
▁Befrachter	-11.981
▁Buchstabe	-11.981
▁Cologne	-11.981
▁Company	-11.981
▁Croatia	-11.981
▁Estuary	-11.981
▁Ethiopia	-11.981
▁Föderation	-11.981
▁García	-11.981
▁Geschehnisse	-11.981
▁Heuchelei	-11.981
▁Hoheitsgebiet	-11.981
▁ICES	-11.981
▁KLA	-11.981
▁Klausel	-11.981
▁Kontinuität	-11.981
▁McNally	-11.981
▁Montreal	-11.981
▁Moratinos	-11.981
▁Niedergang	-11.981
▁Paragraph	-11.981
▁Pflanzen	-11.981
▁Plenarsaal	-11.981
▁Plumb	-11.981
▁Provinz	-11.981
▁Rhetorik	-11.981
▁SPÖ	-11.981
▁Saatgut	-11.981
▁Sorgfalt	-11.981
▁Verschärfung	-11.981
▁Vertiefung	-11.981
▁Wachsamkeit	-11.981
▁XXVIII	-11.981
▁ambiguous	-11.981
▁anwendbar	-11.981
▁befugt	-11.981
▁centuries	-11.981
▁commodity	-11.981
▁constituency	-11.981
▁cornerstone	-11.981
▁demographic	-11.981
▁disappointment	-11.981
▁discrepanc	-11.981
▁doctrine	-11.981
▁einschränken	-11.981
▁erledigt	-11.981
▁geantwortet	-11.981
▁gewerbliche	-11.981
▁hurdle	-11.981
▁manoeuvre	-11.981
▁portfolio	-11.981
▁subsidy	-11.981
▁unzählige	-11.981
▁verstößt	-11.981
▁vertikale	-11.981
▁weitestgehend	-11.981
▁willkürlich	-11.981
▁Ämter	-11.981
▁überrascht	-11.981
▁Blanco	-11.9811
▁GATT	-11.9811
▁Köln	-11.9811
▁Scheitern	-11.9811
▁Schweiz	-11.9811
▁Trennung	-11.9811
▁Ungarn	-11.9811
▁allotted	-11.9811
▁demnächst	-11.9811
▁demonstrieren	-11.9811
▁einzumischen	-11.9811
▁irresponsible	-11.9811
▁video	-11.9811
▁vorzubereiten	-11.9811
▁yield	-11.9811
▁Ängste	-11.9811
5-0034/2000)	-11.9811
▁Politikfelder	-11.9811
▁abträglich	-11.9811
▁anzustreben	-11.9811
▁mißachtet	-11.9811
▁prerogative	-11.9811
▁victory	-11.9811
▁vollwertige	-11.9811
▁vonnöten	-11.9811
▁Erdbeben	-11.9811
▁Rendite	-11.9811
▁Vorzüge	-11.9811
▁quantities	-11.9811
▁skeptisch	-11.9811
▁Hürden	-11.9811
▁Ministry	-11.9811
▁integrity	-11.9811
▁prosecution	-11.9811
▁stroma	-11.9811
▁Fifteen	-11.9811
▁Gegenwart	-11.9811
▁Gegner	-11.9811
▁Zentrum	-11.9811
▁Verhaltenskodex	-11.9811
ALE	-11.9811
▁beseitigt	-11.9811
▁rehabilitation	-11.9811
▁Lanka	-11.9811
▁catastrophic	-11.9811
▁precision	-11.9811
▁subordinate	-11.9811
▁Adriatic	-11.9811
▁fortgeführt	-11.9811
▁beimißt	-11.9811
▁Theorie	-11.9811
▁Peking	-11.9811
▁Soares	-11.9811
▁absehbar	-11.9811
▁ignoriert	-11.9811
▁Chairman	-11.9811
▁Power	-11.9811
▁implies	-11.9811
▁Forstwirtschaft	-11.9811
▁Rücktritt	-11.9811
▁bottom	-11.9811
▁hervorzuheben	-11.9811
▁vertiefen	-11.9811
▁verzögert	-11.9811
▁Schiffbruch	-11.9811
▁devastated	-11.9811
▁Pressefreiheit	-11.9811
▁benachbarte	-11.9811
▁1999/210	-11.9811
▁completion	-11.9811
▁Mitgliedsland	-11.9811
▁distant	-11.9811
▁shareholders	-11.9811
EL	-11.9811
▁PVC	-11.9811
▁gestoßen	-11.9811
▁gesture	-11.9811
▁Korrektur	-11.9811
▁Mindestnormen	-11.9811
▁verhelfen	-11.9811
▁Illusion	-11.9811
▁1957	-11.9811
▁ECU	-11.9811
▁monies	-11.9811
▁Dorf	-11.9811
▁Kostendeckung	-11.9811
▁Beschlusses	-11.9811
▁Aktionsgruppen	-11.9811
▁auszustatten	-11.9811
▁Nationalismus	-11.9811
▁verhandeln	-11.9811
▁Vorhang	-11.9811
▁Poos	-11.9811
35/	-11.9811
▁entsorgt	-11.9811
▁Instabilität	-11.9811
▁meaningful	-11.9811
▁Verbände	-11.9811
▁earth	-11.9811
▁outdated	-11.9811
▁confused	-11.9811
▁Ladung	-11.9811
▁spill	-11.9811
▁ergreift	-11.9811
▁viability	-11.9812
▁twofold	-11.9812
▁erschweren	-11.9812
▁shellfish	-11.9812
▁interaction	-11.9812
▁pronounced	-11.9812
▁94/	-11.9812
▁relocation	-11.9812
▁verteilen	-11.9812
▁guilty	-11.9812
▁Schande	-11.9812
▁dawn	-11.9812
▁absent	-11.9812
▁osteuropäische	-11.9812
▁knock	-11.9813
▁Täter	-11.9813
▁recourse	-11.9813
▁Tiefe	-11.9813
▁verkünden	-11.9813
▁Isolation	-11.9813
▁overwhelming	-11.9813
▁sektorale	-11.9813
▁phasing	-11.9813
▁false	-11.9813
▁shortage	-11.9814
▁workplace	-11.9814
▁Kapitalverkehr	-11.9814
▁Reeder	-11.9814
▁einzuräumen	-11.9814
▁copy	-11.9814
▁kommentieren	-11.9814
▁Zweiten	-11.9814
▁manifesto	-11.9815
▁concessions	-11.9815
▁detrimental	-11.9815
▁secret	-11.9815
▁occupation	-11.9815
▁transmission	-11.9815
▁Fuß	-11.9815
▁senken	-11.9815
▁extremism	-11.9815
▁zuzulassen	-11.9815
▁einrichten	-11.9816
▁plainly	-11.9816
▁Votum	-11.9816
▁Wieland	-11.9816
▁festlegt	-11.9816
▁bold	-11.9816
▁specified	-11.9816
▁beträgt	-11.9817
▁disposed	-11.9817
▁generous	-11.9817
▁quiet	-11.9817
▁reformieren	-11.9817
▁genehmigen	-11.9817
▁gulf	-11.9817
▁cautious	-11.9817
▁indirect	-11.9817
▁vergeben	-11.9818
▁Gefangenen	-11.9819
▁smooth	-11.9819
▁Apart	-11.9819
Meinungsäußerung	-11.9819
▁Diejenigen	-11.9819
▁ausmachen	-11.9819
▁Ölverschmutzung	-11.9819
▁übernimmt	-11.9819
▁Strom	-11.982
▁Michelin	-11.982
▁undertook	-11.982
▁Röm	-11.982
▁Urheberrecht	-11.982
▁Elend	-11.9821
▁auszuarbeiten	-11.9821
▁nobody	-11.9821
ountain	-11.9821
▁Sachverhalt	-11.9821
▁verschmutzt	-11.9822
▁hervorrufen	-11.9822
▁deeds	-11.9823
▁wood	-11.9823
▁consulted	-11.9823
▁drought	-11.9824
▁Kommunen	-11.9824
▁bekunden	-11.9824
▁wrote	-11.9824
▁verheerend	-11.9824
▁Zivilschutz	-11.9825
▁tanks	-11.9825
▁plastic	-11.9826
▁Seegrenze	-11.9826
▁shameful	-11.9826
▁belastet	-11.9826
▁Rechtmäßigkeit	-11.9826
▁einheimische	-11.9827
▁handled	-11.9827
▁optimism	-11.9828
▁Vorzug	-11.9828
▁Then	-11.9828
▁mechanische	-11.9829
▁analysieren	-11.9829
▁Rechtsun	-11.9829
▁socialist	-11.9829
▁Vern	-11.983
▁beimessen	-11.983
▁Einzelnen	-11.9831
▁Handhab	-11.9831
▁anfangen	-11.9831
▁investiert	-11.9831
▁handle	-11.9831
▁supervise	-11.9832
▁reflection	-11.9832
▁Kernaufgaben	-11.9833
▁fährt	-11.9833
▁accommodate	-11.9833
Stadtentwicklung	-11.9834
▁begreifen	-11.9835
▁adapted	-11.9836
▁Laufbahn	-11.9836
▁selber	-11.9837
▁waterways	-11.9838
▁eintritt	-11.9839
▁Weltb	-11.9839
▁Lesen	-11.9839
▁motiviert	-11.9839
▁Zustellung	-11.9839
▁Anti	-11.9839
▁zustimmt	-11.984
▁Goal	-11.984
▁Ausführung	-11.984
▁game	-11.984
▁wahrzunehmen	-11.9841
▁assurances	-11.9842
▁angesetzt	-11.9842
▁reiterated	-11.9843
▁produktiv	-11.9844
▁modernise	-11.9844
▁sorgt	-11.9845
▁eliminated	-11.9845
▁enforced	-11.9845
▁substitute	-11.9846
▁voiced	-11.9848
▁stützen	-11.9848
▁Selbständige	-11.9848
▁communitisation	-11.9849
▁adequately	-11.9849
VIII	-11.9849
▁charged	-11.985
▁Produktivität	-11.985
▁dependence	-11.9851
▁baldige	-11.9851
uchung	-11.9851
▁88	-11.9851
▁Nachrichten	-11.9851
▁observers	-11.9853
ziehen	-11.9853
▁Natura	-11.9854
▁split	-11.9854
▁suspend	-11.9854
▁Innenminister	-11.9855
▁hofft	-11.9856
▁streichen	-11.9858
▁Tschechische	-11.986
▁spüren	-11.9861
▁kommerzielle	-11.9861
▁Gegenden	-11.9862
▁attended	-11.9863
▁löst	-11.9864
▁schools	-11.9867
▁dossiers	-11.9867
▁joined	-11.9867
▁pledges	-11.9868
▁prioritise	-11.987
▁persuade	-11.987
▁Militärs	-11.9873
▁sites	-11.9875
▁fanden	-11.9877
▁sincere	-11.9877
▁behält	-11.9877
▁soul	-11.9881
▁drugs	-11.9881
▁23.	-11.9881
▁weckt	-11.9885
▁Deregulierung	-11.9887
quoten	-11.9888
▁hundert	-11.9889
▁Behinderten	-11.9892
▁umhin	-11.9894
▁verify	-11.9894
▁wirkt	-11.9895
▁Jugendlichen	-11.9896
▁Geltung	-11.9896
▁love	-11.9897
▁postpone	-11.9897
▁multinationals	-11.9899
pleted	-11.9899
▁streben	-11.9899
Generalsekretärs	-11.99
▁estimates	-11.99
agen	-11.9901
gangs	-11.9901
▁overlook	-11.9901
▁aufstellen	-11.9902
▁Details	-11.9903
sinstrument	-11.9904
▁zuwenden	-11.9907
▁allocate	-11.9908
▁zahlt	-11.991
▁75	-11.9911
grade	-11.9912
▁israelisch	-11.9913
slosigkeit	-11.9915
▁trials	-11.9916
▁doors	-11.9917
▁terroristische	-11.9917
siedelten	-11.9918
kürzung	-11.9919
▁measured	-11.9919
▁demographische	-11.992
gleichbehandlung	-11.9924
▁verarbeitende	-11.9924
▁zeitliche	-11.9925
steigen	-11.9925
tern	-11.9927
▁costly	-11.9927
▁Konzerne	-11.9927
▁Gen	-11.9929
▁sell	-11.9931
schaftliche	-11.9932
zuarbeiten	-11.9933
▁wondering	-11.9935
form	-11.9937
▁pressing	-11.994
▁Abend	-11.9955
▁po	-11.9957
▁vordringlich	-11.9958
▁dringende	-11.9964
▁kohärenten	-11.9964
v	-11.9967
▁Moral	-11.9967
▁Heranführung	-11.9968
▁joining	-11.9969
ierte	-11.9969
▁besagt	-11.9971
▁Häufig	-11.9973
▁eigenständige	-11.9974
▁Lobby	-11.9978
▁civilians	-11.9979
▁Gebühren	-11.9979
-080	-11.998
▁Finanzmärkten	-11.9985
▁zweckmäßig	-11.9986
▁languages	-11.9987
▁resident	-11.9988
▁Kubas	-11.9994
▁ausgegeben	-11.9996
lose	-11.9996
▁unterbreiteten	-12.0001
langen	-12.0004
▁criticise	-12.0004
▁Geschäft	-12.0005
sprozessen	-12.0006
ub	-12.0008
▁Statt	-12.0012
wachsen	-12.0012
▁summarise	-12.0012
zentren	-12.0015
▁forest	-12.0016
▁escape	-12.002
▁Rechtsakt	-12.0024
gunst	-12.0033
▁practise	-12.0034
▁assured	-12.0035
▁cheap	-12.0035
sfragen	-12.0036
▁Kopf	-12.0037
forderung	-12.0039
▁Port	-12.005
fang	-12.0052
▁Griechenlands	-12.0062
▁dozen	-12.0066
▁generelle	-12.0066
▁deaths	-12.0071
▁ges	-12.0071
▁page	-12.0074
▁plants	-12.0083
stück	-12.0083
▁Anpassungen	-12.0086
ückkehr	-12.0089
etzung	-12.0094
gerlich	-12.0096
Nordi	-12.0097
liste	-12.0102
▁degrees	-12.0103
▁kleines	-12.0105
mechanismen	-12.0106
▁enact	-12.0108
nen	-12.0109
▁reich	-12.0111
ad	-12.0116
▁Hoffnungen	-12.0123
▁Vorbereitungen	-12.0123
▁Kommissars	-12.0125
▁liberalisiert	-12.0131
phase	-12.0131
active	-12.0133
▁symbolic	-12.0134
▁Versprech	-12.0137
▁Kontrollsystem	-12.0145
▁cuts	-12.0145
▁weitreichende	-12.0147
▁manufacture	-12.0149
zufordern	-12.0153
▁imply	-12.0157
sätze	-12.0164
matic	-12.0167
▁comprise	-12.017
ika	-12.0174
▁bestmögliche	-12.0176
staatenkontrolle	-12.018
▁großzügig	-12.018
▁Finanzen	-12.0181
▁concepts	-12.0187
Kandidatenländer	-12.0187
▁touristisch	-12.019
▁dedicate	-12.0195
▁lobenswerte	-12.0197
▁bilaterale	-12.0201
▁ste	-12.0206
dable	-12.0208
▁zutreffend	-12.0208
▁Gewinn	-12.0213
▁Flüchtlingen	-12.0215
▁Prinzips	-12.0219
zusehen	-12.0227
▁lasted	-12.0227
▁fac	-12.0228
▁spezifisch	-12.0234
▁ernannt	-12.0235
▁Jan	-12.0236
▁shock	-12.0241
sorgane	-12.0241
▁machte	-12.0242
▁Rahmenprogramm	-12.0253
smodell	-12.026
▁Versicherungs	-12.026
▁zusammenarbeite	-12.0261
▁Cuban	-12.0262
▁tief	-12.0265
▁beruhende	-12.0266
schieben	-12.0268
▁Bevölkerungs	-12.0273
▁normale	-12.0275
herein	-12.0278
▁Standort	-12.0285
▁IT	-12.0295
▁schlechter	-12.0299
▁Durchschnitt	-12.0301
▁striv	-12.0303
shod	-12.0305
fangen	-12.0308
▁distinct	-12.032
▁begleiten	-12.0335
geht	-12.0335
unglück	-12.034
▁assessments	-12.0343
▁traditionell	-12.0344
ert	-12.0349
cks	-12.0349
▁contraven	-12.0351
voraussetzung	-12.0358
▁zulässige	-12.0361
argued	-12.0362
sstaatlichkeit	-12.0363
rom	-12.0365
▁Ru	-12.0366
▁multiplic	-12.0368
weile	-12.037
▁proven	-12.0371
▁Aids	-12.0376
▁entlegen	-12.0376
gegangen	-12.0382
▁begrüßenswert	-12.0384
▁bemerkenswert	-12.0386
▁namentlich	-12.0386
41	-12.0387
▁lists	-12.0399
▁käme	-12.0402
seinandersetzung	-12.0403
ill	-12.0404
▁approaching	-12.041
zialdemokratisch	-12.0415
▁fuel	-12.0418
inanzausstattung	-12.0423
ursacherprinzips	-12.0425
▁Alles	-12.0426
▁bare	-12.0431
2/2000)	-12.0432
▁tiefer	-12.0432
▁territoriale	-12.0432
iness	-12.0441
▁assum	-12.0448
wertung	-12.0455
▁Mon	-12.0457
▁entlegene	-12.0458
ld	-12.0472
▁vorbehaltl	-12.0473
prinzipien	-12.0474
ewältigung	-12.0474
▁shake	-12.0478
▁alleviat	-12.0481
losing	-12.0483
▁decid	-12.0488
store	-12.0507
▁dringliche	-12.0511
▁zugrundeliegen	-12.0517
legen	-12.0518
4/2000	-12.0521
ue	-12.0522
▁Eigentum	-12.0523
▁Entscheid	-12.0528
▁fa	-12.0536
▁bedeutend	-12.054
▁Na	-12.0546
▁elementar	-12.0548
Demokratisierung	-12.0551
alisierung	-12.0555
▁Unionspolitik	-12.0559
chaffung	-12.0563
▁schädliche	-12.0566
▁Automobil	-12.0567
initiated	-12.0568
Wasserversorgung	-12.0569
▁pain	-12.0577
▁angesprochene	-12.058
▁Soll	-12.0585
ziele	-12.0589
fällen	-12.0594
▁Schaf	-12.0597
verfolgbarkeit	-12.0597
▁Diversi	-12.06
some	-12.0607
zusetzen	-12.0615
nsequently	-12.0622
▁exakt	-12.0627
▁sail	-12.0635
regionen	-12.0637
▁ruin	-12.0637
▁geschlossene	-12.064
▁59	-12.0653
ets	-12.0656
rstellung	-12.0661
▁Rec	-12.0662
▁schlimmer	-12.0662
ländern	-12.0664
▁Anschein	-12.0665
sverhältnisse	-12.0666
sicht	-12.067
▁Vert	-12.067
▁sho	-12.0675
▁ad	-12.0675
herrschenden	-12.0677
schreiben	-12.0686
ze	-12.0703
raten	-12.0704
▁Haiders	-12.0707
▁Netz	-12.0709
tätigung	-12.0717
▁perfekt	-12.0726
▁aufweisen	-12.0734
cht	-12.0747
rooted	-12.076
▁Gemeinschaftsin	-12.0773
▁ausgeweitet	-12.0776
sregeln	-12.0776
konflikt	-12.0779
U	-12.0789
▁Bezüg	-12.0798
Projekte	-12.0802
▁rück	-12.0802
▁15,	-12.0809
post	-12.0812
iger	-12.0812
▁eingreifen	-12.0822
▁realistische	-12.0825
▁beachten	-12.0831
▁understands	-12.084
kapital	-12.0842
▁harmonische	-12.0843
▁kohärent	-12.0849
staatlichkeit	-12.0851
ind	-12.0853
▁containe	-12.0855
wie	-12.086
rust	-12.0867
▁gelegen	-12.087
▁geplante	-12.0871
▁gültig	-12.0885
▁rechtmäßig	-12.0885
fore	-12.0885
ezug	-12.0887
▁lacks	-12.0891
Bürger	-12.0898
▁üben	-12.0903
tes	-12.0905
material	-12.0914
anteil	-12.0925
▁105	-12.0927
▁Bot	-12.0928
▁str	-12.0928
▁halb	-12.0929
▁Entw	-12.0929
zy	-12.0933
▁liberale	-12.0934
1%	-12.0935
▁controll	-12.0936
▁leitende	-12.0939
0(	-12.0939
möglich	-12.0941
▁globalis	-12.0941
05	-12.0945
▁extern	-12.095
▁ungünstig	-12.0951
skraft	-12.0953
Verträge	-12.0954
ss	-12.0954
state	-12.0958
▁wirksamere	-12.0959
first	-12.096
▁22.	-12.0961
▁integrieren	-12.0966
kel	-12.0968
erabschied	-12.0971
▁Sozialver	-12.0975
emäß	-12.0975
▁tune	-12.0976
▁exercis	-12.098
establish	-12.0984
EW	-12.0991
▁vieles	-12.0995
▁processing	-12.0998
▁underpin	-12.0998
Allgemeine	-12.1004
▁Equal	-12.1004
etrugsbekämpfung	-12.1005
gruppe	-12.1014
hilosophi	-12.1016
voll	-12.1018
▁16.	-12.1023
▁beenden	-12.1023
lles	-12.1029
bgesehen	-12.103
Israel	-12.1034
ob	-12.1034
rahmen	-12.1038
mentioned	-12.1038
▁Bestandteile	-12.1039
Verordnung	-12.104
trade	-12.1042
steuern	-12.1047
▁ineffizient	-12.1052
▁wild	-12.1055
brauchssteuern	-12.1057
discrimination	-12.1057
Nutzen	-12.1063
▁ersuchen	-12.1065
friendly	-12.1066
personnel	-12.1066
3(	-12.1067
▁Anna	-12.1068
▁Wünsche	-12.1068
tlich	-12.107
month	-12.1071
ped	-12.1075
▁agendas	-12.1087
▁annex	-12.1088
▁Normal	-12.1088
▁Partnerschafts	-12.1091
äre	-12.1092
▁starts	-12.1093
zero	-12.1095
▁vorbeugen	-12.1097
▁verbesserte	-12.1097
stellt	-12.1104
▁verweigert	-12.1116
▁Landwirt	-12.1116
▁treiben	-12.1116
▁stem	-12.1125
▁leid	-12.1128
eine	-12.113
▁faire	-12.113
▁optimale	-12.113
ministerium	-12.1132
▁Zusammenhänge	-12.1136
ler	-12.1137
ency	-12.1144
▁Küstengebiete	-12.1146
▁Mühe	-12.1146
änge	-12.1147
▁Arbeitslose	-12.1147
▁abschließen	-12.1148
Environment	-12.1149
▁Spitze	-12.1149
makers	-12.115
leistungen	-12.115
llen	-12.1151
▁foresee	-12.1156
▁Truppe	-12.1156
▁Billigflagge	-12.1157
▁Technologie	-12.1158
▁India	-12.1158
▁fürchte	-12.1158
▁völlige	-12.1159
▁Hände	-12.116
▁ba	-12.1162
▁Kenntnisse	-12.1163
▁schätze	-12.1164
▁brauche	-12.1166
ra	-12.1166
▁disciplin	-12.1167
(2)	-12.1169
▁airport	-12.1174
▁Widerstand	-12.1175
▁Summe	-12.1176
▁entrepreneur	-12.1176
▁Ökosysteme	-12.1177
▁Erfordernis	-12.1177
▁Rechtssysteme	-12.1178
▁Technik	-12.1179
▁circle	-12.118
▁viewpoint	-12.1181
▁steigen	-12.1182
▁Fälschung	-12.1184
▁gebrachte	-12.1184
▁Beschränkung	-12.1184
▁Auswirkung	-12.1184
▁derogation	-12.1184
▁Million	-12.1184
▁department	-12.1185
▁umstritten	-12.1185
▁tension	-12.1187
▁Standard	-12.1188
▁offence	-12.1188
▁Dam	-12.1189
▁Ratsvorsitz	-12.119
▁Ungleichgewicht	-12.1196
▁Schule	-12.1196
▁expectation	-12.1197
▁ereignet	-12.1197
▁installation	-12.1197
▁hole	-12.1199
▁Rückschritt	-12.1201
▁wahrhaft	-12.1203
▁Export	-12.1203
portion	-12.1206
▁einseitig	-12.1207
▁vergleichbare	-12.1211
▁omission	-12.1218
▁write	-12.1219
geworfen	-12.1219
▁clash	-12.1222
▁Gott	-12.1225
▁übergreifende	-12.1226
tory	-12.1226
▁meinte	-12.1228
▁punish	-12.1228
ringer	-12.123
▁suspect	-12.123
ote	-12.1233
▁penalt	-12.1234
wicklung	-12.1234
▁margin	-12.1235
▁versäum	-12.1237
▁sol	-12.1238
▁arabische	-12.1239
▁Komplex	-12.1239
▁guard	-12.1239
▁Kabeljau	-12.1239
Herzegowina	-12.1239
rtribunal	-12.1239
▁Anschuldigungen	-12.1239
▁Berenguer	-12.1239
▁Crowley	-12.1239
▁Declaration	-12.1239
▁EAGFL	-12.1239
▁EAGGF	-12.1239
▁Falschmünzer	-12.1239
▁GFK	-12.1239
▁Galicia	-12.1239
▁Getränke	-12.1239
▁Golanhöhen	-12.1239
▁Industry	-12.1239
▁Investoren	-12.1239
▁Künstler	-12.1239
▁Legitimation	-12.1239
▁Legitimität	-12.1239
▁Malmström	-12.1239
▁Nachbarstaaten	-12.1239
▁Pacific	-12.1239
▁Papayannakis	-12.1239
▁Quecksilber	-12.1239
▁Rouge	-12.1239
[...]
